{
  "version": "1.0",
  "truncation": null,
  "padding": null,
  "added_tokens": [
    {
      "id": 0,
      "content": "[PAD]",
      "single_word": false,
      "lstrip": false,
      "rstrip": false,
      "normalized": false,
      "special": true
    },
    {
      "id": 1,
      "content": "[UNK]",
      "single_word": false,
      "lstrip": false,
      "rstrip": false,
      "normalized": false,
      "special": true
    },
    {
      "id": 2,
      "content": "[SEP]",
      "single_word": false,
      "lstrip": false,
      "rstrip": false,
      "normalized": false,
      "special": true
    },
    {
      "id": 3,
      "content": "[CLS]",
      "single_word": false,
      "lstrip": false,
      "rstrip": false,
      "normalized": false,
      "special": true
    },
    {
      "id": 4,
      "content": "[MASK]",
      "single_word": false,
      "lstrip": false,
      "rstrip": false,
      "normalized": false,
      "special": true
    }
  ],
  "normalizer": null,
  "pre_tokenizer": {
    "type": "ByteLevel",
    "add_prefix_space": true,
    "trim_offsets": true,
    "use_regex": true
  },
  "post_processor": null,
  "decoder": {
    "type": "ByteLevel",
    "add_prefix_space": true,
    "trim_offsets": true,
    "use_regex": true
  },
  "model": {
    "type": "BPE",
    "dropout": null,
    "unk_token": null,
    "continuing_subword_prefix": null,
    "end_of_word_suffix": null,
    "fuse_unk": false,
    "byte_fallback": false,
    "ignore_merges": false,
    "vocab": {
      "[PAD]": 0,
      "[UNK]": 1,
      "[SEP]": 2,
      "[CLS]": 3,
      "[MASK]": 4,
      "!": 5,
      "\"": 6,
      "#": 7,
      "$": 8,
      "%": 9,
      "&": 10,
      "'": 11,
      "(": 12,
      ")": 13,
      "*": 14,
      "+": 15,
      ",": 16,
      "-": 17,
      ".": 18,
      "/": 19,
      "0": 20,
      "1": 21,
      "2": 22,
      "3": 23,
      "4": 24,
      "5": 25,
      "6": 26,
      "7": 27,
      "8": 28,
      "9": 29,
      ":": 30,
      ";": 31,
      "<": 32,
      "=": 33,
      ">": 34,
      "?": 35,
      "@": 36,
      "A": 37,
      "B": 38,
      "C": 39,
      "D": 40,
      "E": 41,
      "F": 42,
      "G": 43,
      "H": 44,
      "I": 45,
      "J": 46,
      "K": 47,
      "L": 48,
      "M": 49,
      "N": 50,
      "O": 51,
      "P": 52,
      "Q": 53,
      "R": 54,
      "S": 55,
      "T": 56,
      "U": 57,
      "V": 58,
      "W": 59,
      "X": 60,
      "Y": 61,
      "Z": 62,
      "[": 63,
      "\\": 64,
      "]": 65,
      "^": 66,
      "_": 67,
      "`": 68,
      "a": 69,
      "b": 70,
      "c": 71,
      "d": 72,
      "e": 73,
      "f": 74,
      "g": 75,
      "h": 76,
      "i": 77,
      "j": 78,
      "k": 79,
      "l": 80,
      "m": 81,
      "n": 82,
      "o": 83,
      "p": 84,
      "q": 85,
      "r": 86,
      "s": 87,
      "t": 88,
      "u": 89,
      "v": 90,
      "w": 91,
      "x": 92,
      "y": 93,
      "z": 94,
      "{": 95,
      "|": 96,
      "}": 97,
      "~": 98,
      "¡": 99,
      "¢": 100,
      "£": 101,
      "¤": 102,
      "¥": 103,
      "¦": 104,
      "§": 105,
      "¨": 106,
      "©": 107,
      "ª": 108,
      "«": 109,
      "¬": 110,
      "®": 111,
      "¯": 112,
      "°": 113,
      "±": 114,
      "²": 115,
      "³": 116,
      "´": 117,
      "µ": 118,
      "¶": 119,
      "·": 120,
      "¸": 121,
      "¹": 122,
      "º": 123,
      "»": 124,
      "¼": 125,
      "½": 126,
      "¾": 127,
      "¿": 128,
      "À": 129,
      "Á": 130,
      "Â": 131,
      "Ã": 132,
      "Ä": 133,
      "Å": 134,
      "Æ": 135,
      "Ç": 136,
      "È": 137,
      "É": 138,
      "Ê": 139,
      "Ë": 140,
      "Ì": 141,
      "Í": 142,
      "Î": 143,
      "Ï": 144,
      "Ð": 145,
      "Ñ": 146,
      "Ò": 147,
      "Ó": 148,
      "Ô": 149,
      "Õ": 150,
      "Ö": 151,
      "×": 152,
      "Ø": 153,
      "Ù": 154,
      "Ú": 155,
      "Û": 156,
      "Ü": 157,
      "Ý": 158,
      "Þ": 159,
      "ß": 160,
      "à": 161,
      "á": 162,
      "â": 163,
      "ã": 164,
      "ä": 165,
      "å": 166,
      "æ": 167,
      "ç": 168,
      "è": 169,
      "é": 170,
      "ê": 171,
      "ë": 172,
      "ì": 173,
      "í": 174,
      "î": 175,
      "ï": 176,
      "ð": 177,
      "ñ": 178,
      "ò": 179,
      "ó": 180,
      "ô": 181,
      "õ": 182,
      "ö": 183,
      "÷": 184,
      "ø": 185,
      "ù": 186,
      "ú": 187,
      "û": 188,
      "ü": 189,
      "ý": 190,
      "þ": 191,
      "ÿ": 192,
      "Ā": 193,
      "ā": 194,
      "Ă": 195,
      "ă": 196,
      "Ą": 197,
      "ą": 198,
      "Ć": 199,
      "ć": 200,
      "Ĉ": 201,
      "ĉ": 202,
      "Ċ": 203,
      "ċ": 204,
      "Č": 205,
      "č": 206,
      "Ď": 207,
      "ď": 208,
      "Đ": 209,
      "đ": 210,
      "Ē": 211,
      "ē": 212,
      "Ĕ": 213,
      "ĕ": 214,
      "Ė": 215,
      "ė": 216,
      "Ę": 217,
      "ę": 218,
      "Ě": 219,
      "ě": 220,
      "Ĝ": 221,
      "ĝ": 222,
      "Ğ": 223,
      "ğ": 224,
      "Ġ": 225,
      "ġ": 226,
      "Ģ": 227,
      "ģ": 228,
      "Ĥ": 229,
      "ĥ": 230,
      "Ħ": 231,
      "ħ": 232,
      "Ĩ": 233,
      "ĩ": 234,
      "Ī": 235,
      "ī": 236,
      "Ĭ": 237,
      "ĭ": 238,
      "Į": 239,
      "į": 240,
      "İ": 241,
      "ı": 242,
      "Ĳ": 243,
      "ĳ": 244,
      "Ĵ": 245,
      "ĵ": 246,
      "Ķ": 247,
      "ķ": 248,
      "ĸ": 249,
      "Ĺ": 250,
      "ĺ": 251,
      "Ļ": 252,
      "ļ": 253,
      "Ľ": 254,
      "ľ": 255,
      "Ŀ": 256,
      "ŀ": 257,
      "Ł": 258,
      "ł": 259,
      "Ń": 260,
      "in": 261,
      "Ġa": 262,
      "on": 263,
      "Ġt": 264,
      "es": 265,
      "er": 266,
      "ti": 267,
      "en": 268,
      "ing": 269,
      "Ġc": 270,
      "or": 271,
      "al": 272,
      "nd": 273,
      "Ġs": 274,
      "Ġth": 275,
      "re": 276,
      "Ġp": 277,
      "tion": 278,
      "Ġand": 279,
      "it": 280,
      "Ġo": 281,
      "at": 282,
      "an": 283,
      "Ġin": 284,
      "ro": 285,
      "ar": 286,
      "Ġf": 287,
      "ed": 288,
      "is": 289,
      "Ġthe": 290,
      "Ġd": 291,
      "le": 292,
      "Ġm": 293,
      "ic": 294,
      "ent": 295,
      "Ġw": 296,
      "Ġb": 297,
      "ou": 298,
      "Ġe": 299,
      "Ġof": 300,
      "Ġto": 301,
      "ation": 302,
      "st": 303,
      "ac": 304,
      "ec": 305,
      "om": 306,
      "el": 307,
      "Ġh": 308,
      "Ġre": 309,
      "ur": 310,
      "il": 311,
      "ers": 312,
      "et": 313,
      "ess": 314,
      "ol": 315,
      "ig": 316,
      "Ġl": 317,
      "id": 318,
      "ce": 319,
      "ve": 320,
      "as": 321,
      "ly": 322,
      "us": 323,
      "ment": 324,
      "ĠC": 325,
      "Ġcon": 326,
      "im": 327,
      "ul": 328,
      "th": 329,
      "Ġpro": 330,
      "ĠT": 331,
      "ra": 332,
      "Ġst": 333,
      "uc": 334,
      "ĠA": 335,
      "ĠS": 336,
      "ow": 337,
      "Ġg": 338,
      "Ġex": 339,
      "ts": 340,
      "Ġn": 341,
      "Ġfor": 342,
      "ity": 343,
      "ir": 344,
      "un": 345,
      "ab": 346,
      "Ġr": 347,
      "ver": 348,
      "ate": 349,
      "Ġcom": 350,
      "Ġen": 351,
      "Ġv": 352,
      "am": 353,
      "ag": 354,
      "ith": 355,
      "ter": 356,
      "tic": 357,
      "pp": 358,
      "our": 359,
      "ĠP": 360,
      "ut": 361,
      "qu": 362,
      "ion": 363,
      "Ġon": 364,
      "ri": 365,
      "ĠI": 366,
      "em": 367,
      "Ġwh": 368,
      "Ġwith": 369,
      "ations": 370,
      "os": 371,
      "if": 372,
      "ain": 373,
      "ay": 374,
      "oc": 375,
      "Ġas": 376,
      "ĠE": 377,
      "Ġy": 378,
      "pl": 379,
      "and": 380,
      "ĠB": 381,
      "ĠM": 382,
      "ies": 383,
      "for": 384,
      "ting": 385,
      "igh": 386,
      "iz": 387,
      "Ġor": 388,
      "Ġac": 389,
      "ĠTh": 390,
      "ĠD": 391,
      "ance": 392,
      "ad": 393,
      "od": 394,
      "iti": 395,
      "Ġal": 396,
      "ud": 397,
      "ot": 398,
      "'s": 399,
      "ke": 400,
      "op": 401,
      "Ġch": 402,
      "rou": 403,
      "ĠR": 404,
      "ch": 405,
      "Ġint": 406,
      "tions": 407,
      "ure": 408,
      "vel": 409,
      "ĠF": 410,
      "Ġde": 411,
      "Ġres": 412,
      "ust": 413,
      "Ġle": 414,
      "per": 415,
      "Ġan": 416,
      "Ġcomp": 417,
      "og": 418,
      "tive": 419,
      "Ġim": 420,
      "iv": 421,
      "ating": 422,
      "Ġad": 423,
      "ial": 424,
      "um": 425,
      "Ġit": 426,
      "Ġbe": 427,
      "ap": 428,
      "Ġu": 429,
      "ous": 430,
      "ign": 431,
      "ist": 432,
      "--": 433,
      "ical": 434,
      "duc": 435,
      "enti": 436,
      "gh": 437,
      "Ġpr": 438,
      "pec": 439,
      "age": 440,
      "Ġ(": 441,
      "ip": 442,
      "Ġcont": 443,
      "ĠH": 444,
      "ill": 445,
      "Ġun": 446,
      "enc": 447,
      "ĠW": 448,
      "ĠL": 449,
      "ese": 450,
      "Ġinc": 451,
      "all": 452,
      "ort": 453,
      "able": 454,
      "ine": 455,
      "ard": 456,
      "ves": 457,
      "cess": 458,
      "form": 459,
      "ant": 460,
      "king": 461,
      "Ġtheir": 462,
      "are": 463,
      "ff": 464,
      "ence": 465,
      "ual": 466,
      "Ġus": 467,
      "Ġapp": 468,
      "ĠU": 469,
      "se": 470,
      "end": 471,
      "Ġem": 472,
      "ans": 473,
      "Ġsh": 474,
      "Ġis": 475,
      "ore": 476,
      "Ġtr": 477,
      "ents": 478,
      "act": 479,
      "Ġse": 480,
      "Ġpl": 481,
      "rom": 482,
      "ments": 483,
      "ge": 484,
      "anc": 485,
      "ities": 486,
      "Ġimp": 487,
      "ew": 488,
      "ĠO": 489,
      "est": 490,
      "Ġstr": 491,
      "nder": 492,
      "Ġby": 493,
      "ach": 494,
      "ĠIn": 495,
      "Ġcan": 496,
      "rough": 497,
      "Ġthis": 498,
      "ors": 499,
      "ost": 500,
      "Ġyour": 501,
      "ib": 502,
      "Ġthat": 503,
      "uring": 504,
      "ility": 505,
      "ĠG": 506,
      "fer": 507,
      "Ġdis": 508,
      "out": 509,
      "ech": 510,
      "ile": 511,
      "Ġwe": 512,
      "ast": 513,
      "ong": 514,
      "Ġcons": 515,
      "ep": 516,
      "ere": 517,
      "ition": 518,
      "Ġinto": 519,
      "ld": 520,
      "Ġsu": 521,
      "Ġsuc": 522,
      "ens": 523,
      "ated": 524,
      "ther": 525,
      "ide": 526,
      "Ġat": 527,
      "av": 528,
      "ential": 529,
      "ary": 530,
      "Ġthese": 531,
      "Ġhe": 532,
      "Ġwor": 533,
      "Ġcomm": 534,
      "ue": 535,
      "ks": 536,
      "Ġind": 537,
      "Ġfrom": 538,
      "Ġinter": 539,
      "lec": 540,
      "ight": 541,
      "Ġyou": 542,
      "low": 543,
      "ike": 544,
      "Ġpar": 545,
      "ful": 546,
      "ĠN": 547,
      "ati": 548,
      "Ġar": 549,
      "echn": 550,
      "Ġcre": 551,
      "velop": 552,
      "Ġman": 553,
      "ĠCon": 554,
      "Ġro": 555,
      "ĠSt": 556,
      "ures": 557,
      "Ġab": 558,
      "ive": 559,
      "ire": 560,
      "stand": 561,
      "ific": 562,
      "ark": 563,
      "nderstand": 564,
      "Ġpre": 565,
      "lic": 566,
      "Ġtra": 567,
      "ear": 568,
      "ail": 569,
      "olog": 570,
      "ell": 571,
      "Ġprov": 572,
      "Ġthrough": 573,
      "ious": 574,
      "ress": 575,
      "Ġev": 576,
      "eg": 577,
      "ĠThe": 578,
      "over": 579,
      "ome": 580,
      "ef": 581,
      "Ġper": 582,
      "Ġits": 583,
      "Ġare": 584,
      "ry": 585,
      "ning": 586,
      "Ġdes": 587,
      "ding": 588,
      "ult": 589,
      "Ġj": 590,
      "ace": 591,
      "etw": 592,
      "her": 593,
      "Ġcl": 594,
      "Ġincl": 595,
      "Ġsp": 596,
      "----": 597,
      "Ġlike": 598,
      "ms": 599,
      "ateg": 600,
      "ack": 601,
      "hip": 602,
      "Ġexper": 603,
      "âĢ": 604,
      "iqu": 605,
      "tical": 606,
      "ates": 607,
      "Ġins": 608,
      "Ġtechn": 609,
      "**": 610,
      "les": 611,
      "tim": 612,
      "Ġrec": 613,
      "oun": 614,
      "Ġme": 615,
      "Ġreg": 616,
      "Ġover": 617,
      "erv": 618,
      "tain": 619,
      "ple": 620,
      "ase": 621,
      "ges": 622,
      "Ġrel": 623,
      "ect": 624,
      "Ġop": 625,
      "Ġdevelop": 626,
      "ater": 627,
      "pon": 628,
      "ish": 629,
      "ass": 630,
      "ative": 631,
      "Ġinclud": 632,
      "ci": 633,
      "oo": 634,
      "cl": 635,
      "ĠCh": 636,
      "tiv": 637,
      "ions": 638,
      "In": 639,
      "ences": 640,
      "ph": 641,
      "nderstanding": 642,
      "Ġexpl": 643,
      "Ġeff": 644,
      "ower": 645,
      "Ġsuch": 646,
      "ia": 647,
      "ric": 648,
      "ourse": 649,
      "Ġtrans": 650,
      "Ġsign": 651,
      "ider": 652,
      "ular": 653,
      "ory": 654,
      "II": 655,
      "Ġcol": 656,
      "alth": 657,
      "rib": 658,
      "ys": 659,
      "duction": 660,
      "pport": 661,
      "als": 662,
      "round": 663,
      "een": 664,
      "Ġam": 665,
      "erson": 666,
      "ĠEx": 667,
      "arket": 668,
      "ely": 669,
      "ruc": 670,
      "Ġexperi": 671,
      "Ġwhile": 672,
      "dition": 673,
      "Ġqu": 674,
      "eed": 675,
      "ational": 676,
      "Ġ-": 677,
      "ind": 678,
      "Ġstud": 679,
      "etween": 680,
      "row": 681,
      "Ġvar": 682,
      "Ġwill": 683,
      "ss": 684,
      "ability": 685,
      "Ġsy": 686,
      "Ġcommun": 687,
      "ues": 688,
      "Ġass": 689,
      "Ġour": 690,
      "Ġhow": 691,
      "Ġbetween": 692,
      "ging": 693,
      "Ġens": 694,
      "iness": 695,
      "ov": 696,
      "ĠBy": 697,
      "ten": 698,
      "Ġhigh": 699,
      "ased": 700,
      "its": 701,
      "Ġbo": 702,
      "Ġacc": 703,
      "ose": 704,
      "ave": 705,
      "ards": 706,
      "ĠUn": 707,
      "Ġtim": 708,
      "ub": 709,
      "ak": 710,
      "rac": 711,
      "Ġadv": 712,
      "Ġstrateg": 713,
      "Ġexam": 714,
      "ivid": 715,
      "tro": 716,
      "ound": 717,
      "ake": 718,
      "ining": 719,
      "ally": 720,
      "Ġeng": 721,
      "otential": 722,
      "ĠPro": 723,
      "ich": 724,
      "vol": 725,
      "pt": 726,
      "ey": 727,
      "Ġ2": 728,
      "Ġprovid": 729,
      "Ġrequ": 730,
      "ĠCom": 731,
      "Ġrem": 732,
      "ection": 733,
      "oy": 734,
      "Ġthey": 735,
      "por": 736,
      "izing": 737,
      "usion": 738,
      "Ġprac": 739,
      "ving": 740,
      "Th": 741,
      "ĠV": 742,
      "ĠThis": 743,
      "ĠAd": 744,
      "ex": 745,
      "ness": 746,
      "stem": 747,
      "par": 748,
      "ersonal": 749,
      "Ġk": 750,
      "Ġsignific": 751,
      "ever": 752,
      "Ġpos": 753,
      "ĠĠ": 754,
      "ividual": 755,
      "Ġspec": 756,
      "Ġout": 757,
      "Ġph": 758,
      "Ġhealth": 759,
      "tional": 760,
      "Ġpotential": 761,
      "elf": 762,
      "usiness": 763,
      "ices": 764,
      "Ġwhen": 765,
      "ering": 766,
      "ize": 767,
      "Ġdesign": 768,
      "Ġval": 769,
      "now": 770,
      "ĠJ": 771,
      "allen": 772,
      "Ġprom": 773,
      "ights": 774,
      "agement": 775,
      "Ġvarious": 776,
      "Ġdisc": 777,
      "Ġinst": 778,
      "ob": 779,
      "Ġindividual": 780,
      "tern": 781,
      "Ġabout": 782,
      "Ġplay": 783,
      "ency": 784,
      "Ġsc": 785,
      "ital": 786,
      "ven": 787,
      "ural": 788,
      "aking": 789,
      "ite": 790,
      "Ġmain": 791,
      "ings": 792,
      "ond": 793,
      "ata": 794,
      "ines": 795,
      "Ġprocess": 796,
      "ĠWh": 797,
      "res": 798,
      "Ġfe": 799,
      "Ġsk": 800,
      "Ġmarket": 801,
      "Ġduring": 802,
      "Ġthem": 803,
      "ice": 804,
      "Ġpol": 805,
      "ood": 806,
      "ty": 807,
      "Ġdec": 808,
      "Ġlead": 809,
      "clusion": 810,
      "gan": 811,
      "ĠK": 812,
      "ould": 813,
      "ĠAn": 814,
      "Ġdel": 815,
      "oci": 816,
      ").": 817,
      "ology": 818,
      "ĠEn": 819,
      "ern": 820,
      "Ġmod": 821,
      "iew": 822,
      "Ġconsider": 823,
      "Ġappro": 824,
      "tics": 825,
      "Ġ1": 826,
      "oring": 827,
      "troduction": 828,
      "yp": 829,
      "ĠIm": 830,
      "aging": 831,
      "til": 832,
      "Ġlear": 833,
      "Ġag": 834,
      "ribut": 835,
      "Ġoff": 836,
      "Ġup": 837,
      "Ġnot": 838,
      "Ġchallen": 839,
      "ized": 840,
      "Ġrep": 841,
      "Ġexp": 842,
      "Ġmore": 843,
      "Ġproduc": 844,
      "Ġallow": 845,
      "Ġinf": 846,
      "get": 847,
      "Ġenh": 848,
      "Ġeffec": 849,
      "Ġinvol": 850,
      "Ġpres": 851,
      "Ġprof": 852,
      "ted": 853,
      "ustom": 854,
      "ps": 855,
      "ivers": 856,
      "uil": 857,
      "Ġbusiness": 858,
      "Ġmet": 859,
      "Ġdem": 860,
      "ross": 861,
      "ages": 862,
      "Ġhave": 863,
      "Ġgen": 864,
      "Ġed": 865,
      "Ġhas": 866,
      "led": 867,
      "Ġunit": 868,
      "Ġsignificant": 869,
      "Ġcare": 870,
      "Ġboth": 871,
      "Ġall": 872,
      "ances": 873,
      "ocus": 874,
      "Ġdif": 875,
      "ough": 876,
      "arm": 877,
      "Ġvis": 878,
      "di": 879,
      "Ġke": 880,
      "ici": 881,
      "Ġmed": 882,
      "so": 883,
      "ath": 884,
      "Ġsystem": 885,
      "ĠâĢ": 886,
      "Ġserv": 887,
      "Ġfin": 888,
      "Ġrespon": 889,
      "Ġgrow": 890,
      "Ġloc": 891,
      "Ġset": 892,
      "af": 893,
      "Ġext": 894,
      "ality": 895,
      "vely": 896,
      "Ġfost": 897,
      "com": 898,
      "Ġref": 899,
      "Ġso": 900,
      "ie": 901,
      "one": 902,
      "Ġsuccess": 903,
      "ication": 904,
      "ces": 905,
      "Ġincre": 906,
      "ling": 907,
      "ible": 908,
      "Ġworld": 909,
      "ĠAs": 910,
      "ics": 911,
      "ution": 912,
      "Ġimpro": 913,
      "Ġother": 914,
      "ands": 915,
      "ord": 916,
      "Ġinform": 917,
      "pportun": 918,
      "ise": 919,
      "Ġdevelopment": 920,
      "Ġnew": 921,
      "Ġpersonal": 922,
      "Ġever": 923,
      "Ġhel": 924,
      "Ġfac": 925,
      "Ġfocus": 926,
      "ization": 927,
      "ique": 928,
      "Ġperform": 929,
      "Ġmay": 930,
      "Ġte": 931,
      "urther": 932,
      "Ġess": 933,
      "Ġdata": 934,
      "old": 935,
      "emb": 936,
      "Ġbec": 937,
      "Ġknow": 938,
      "abor": 939,
      "ĠFor": 940,
      "erg": 941,
      "Ġunderstanding": 942,
      "Ġneed": 943,
      "Ġsur": 944,
      "Ġtime": 945,
      "Ġcap": 946,
      "Ġtow": 947,
      "Ġadd": 948,
      "tices": 949,
      "oin": 950,
      "ety": 951,
      "ĠUnit": 952,
      "enef": 953,
      "Ġorgan": 954,
      "Ġprog": 955,
      "Ġanal": 956,
      "Ġcomple": 957,
      "ct": 958,
      "Ġoffer": 959,
      "itle": 960,
      "Ġpartic": 961,
      "ples": 962,
      "Ġmaintain": 963,
      "ram": 964,
      "ĠâĢĵ": 965,
      "ically": 966,
      "Ġdiffer": 967,
      "tit": 968,
      "Ġchan": 969,
      "Ġone": 970,
      "iron": 971,
      "Ġwhich": 972,
      "uss": 973,
      "egr": 974,
      "--------": 975,
      "Ġalso": 976,
      "Ġsim": 977,
      "ne": 978,
      "Ġcustom": 979,
      "ount": 980,
      "ently": 981,
      "Ġco": 982,
      "entif": 983,
      "Ġwhere": 984,
      "Ġincluding": 985,
      "fore": 986,
      "),": 987,
      "Ġreal": 988,
      "ĠTitle": 989,
      "pect": 990,
      "Ġcontribut": 991,
      "Ġdo": 992,
      "Ġessential": 993,
      "ols": 994,
      "Ġsol": 995,
      "line": 996,
      "ays": 997,
      "ying": 998,
      "ĠHow": 999,
      "ources": 1000,
      "Ġopportun": 1001,
      "ĠThese": 1002,
      "Ġ20": 1003,
      "ilities": 1004,
      "Ġsec": 1005,
      "viron": 1006,
      "Ġstrategies": 1007,
      "ree": 1008,
      "Ġcult": 1009,
      "ons": 1010,
      "iques": 1011,
      "The": 1012,
      "Ġbut": 1013,
      "irst": 1014,
      "ties": 1015,
      "Ġeduc": 1016,
      "Ġob": 1017,
      "Ġcourse": 1018,
      "Ġser": 1019,
      "ditional": 1020,
      "Ġsub": 1021,
      "Ġbl": 1022,
      "art": 1023,
      "ĠDe": 1024,
      "ext": 1025,
      "Ġgu": 1026,
      "utions": 1027,
      "acy": 1028,
      "Ġprot": 1029,
      "Ġthere": 1030,
      "Ġaccess": 1031,
      "labor": 1032,
      "Ġra": 1033,
      "Ġatt": 1034,
      "lish": 1035,
      "Ġinn": 1036,
      "ru": 1037,
      "Ġwho": 1038,
      "Ġunder": 1039,
      "rucial": 1040,
      "Ġconn": 1041,
      "ately": 1042,
      "Ġmo": 1043,
      "Ġapplic": 1044,
      "els": 1045,
      "Ġrelations": 1046,
      "reat": 1047,
      "Ġamong": 1048,
      "Ġchar": 1049,
      "Ġrole": 1050,
      "ĠAc": 1051,
      "iting": 1052,
      "Ġthan": 1053,
      "ibility": 1054,
      "ends": 1055,
      "ession": 1056,
      "Ġskill": 1057,
      "lect": 1058,
      "unc": 1059,
      "Ġcrucial": 1060,
      "ners": 1061,
      "aw": 1062,
      "oura": 1063,
      "Ġdet": 1064,
      "Ġid": 1065,
      "Ġform": 1066,
      "Ġunique": 1067,
      "less": 1068,
      "ature": 1069,
      "ism": 1070,
      "ĠCourse": 1071,
      "hips": 1072,
      "Ġsome": 1073,
      "ved": 1074,
      "Ġfl": 1075,
      "Ġpower": 1076,
      "Ġent": 1077,
      "ft": 1078,
      "atform": 1079,
      "Ġconf": 1080,
      "ocial": 1081,
      "Ġpractices": 1082,
      "view": 1083,
      "ĠRe": 1084,
      "Ġenc": 1085,
      "ife": 1086,
      "ili": 1087,
      "ploy": 1088,
      "Ġcontin": 1089,
      "Ġusing": 1090,
      "Ġgrowth": 1091,
      "lev": 1092,
      "jec": 1093,
      "Ġbenef": 1094,
      "Ġ&": 1095,
      "Ġwithin": 1096,
      "Ġwork": 1097,
      "ination": 1098,
      "ris": 1099,
      "Ġequ": 1100,
      "Ġenviron": 1101,
      "Ġinclude": 1102,
      "iss": 1103,
      "Ġinves": 1104,
      "Ġconc": 1105,
      "own": 1106,
      "Ġany": 1107,
      "cep": 1108,
      "ook": 1109,
      "Ġmus": 1110,
      "raph": 1111,
      "Ġmin": 1112,
      "ame": 1113,
      "Ġdist": 1114,
      "ancing": 1115,
      "Ġkey": 1116,
      "Ġtyp": 1117,
      "Ġoften": 1118,
      "Ġwhat": 1119,
      "ollow": 1120,
      "Ġlet": 1121,
      "Ġgl": 1122,
      "Ġdue": 1123,
      "ang": 1124,
      "Ġbuil": 1125,
      "Ġtowards": 1126,
      ".,": 1127,
      "Ġno": 1128,
      "Ġacross": 1129,
      "Ġinnov": 1130,
      "ĠEm": 1131,
      "Ġmul": 1132,
      "rol": 1133,
      "Ġsaf": 1134,
      "asing": 1135,
      "Ġapproach": 1136,
      "ublic": 1137,
      "Ġchallenges": 1138,
      "con": 1139,
      "ared": 1140,
      "vers": 1141,
      "Ġoverall": 1142,
      "Ġemb": 1143,
      "ead": 1144,
      "ily": 1145,
      "Ġpri": 1146,
      "Ġrespons": 1147,
      "ĠIt": 1148,
      "ories": 1149,
      "ĠAr": 1150,
      "ortance": 1151,
      "Ġcur": 1152,
      "Ġmight": 1153,
      "ision": 1154,
      "ax": 1155,
      "Ġwithout": 1156,
      "ets": 1157,
      "Ġrequire": 1158,
      "Ġopportunities": 1159,
      "ffor": 1160,
      "ases": 1161,
      "aterial": 1162,
      "uth": 1163,
      "lu": 1164,
      "Ġintegr": 1165,
      "ĠY": 1166,
      "Ġ\"": 1167,
      "Ġplatform": 1168,
      "actors": 1169,
      "Ġtechniques": 1170,
      "Ġstudents": 1171,
      "ape": 1172,
      "Ġdivers": 1173,
      "Ġpur": 1174,
      "erm": 1175,
      "ĠAl": 1176,
      "Ġiss": 1177,
      "Ġest": 1178,
      "Ġthose": 1179,
      "pects": 1180,
      "tives": 1181,
      "Ġinsights": 1182,
      "uture": 1183,
      "ather": 1184,
      "hod": 1185,
      "Ġemp": 1186,
      "igital": 1187,
      "Ġhist": 1188,
      "Ġbeh": 1189,
      "ablish": 1190,
      "arding": 1191,
      "Ġoper": 1192,
      "avig": 1193,
      "Ġsee": 1194,
      "ĠApp": 1195,
      "Ġindividuals": 1196,
      "ecess": 1197,
      "orpor": 1198,
      "Ġgener": 1199,
      "Ġeach": 1200,
      "Ġfunc": 1201,
      "Ġav": 1202,
      "itive": 1203,
      "Ġgo": 1204,
      "eness": 1205,
      "Ġpe": 1206,
      "Ġevery": 1207,
      "anced": 1208,
      "ron": 1209,
      "ture": 1210,
      "eng": 1211,
      "ogn": 1212,
      "Ġsm": 1213,
      "St": 1214,
      "Ġexperience": 1215,
      "Ġbased": 1216,
      "Ġarti": 1217,
      "Ġfollow": 1218,
      "Ġher": 1219,
      "Ġprovide": 1220,
      "Ġmulti": 1221,
      "Ġindust": 1222,
      "Ġprofession": 1223,
      "ental": 1224,
      "ĠImp": 1225,
      "ĠIntroduction": 1226,
      "Ġdiscuss": 1227,
      "ract": 1228,
      "Ġhum": 1229,
      "tively": 1230,
      "ications": 1231,
      "Ġensuring": 1232,
      "Ġback": 1233,
      "day": 1234,
      "ork": 1235,
      "Ġproper": 1236,
      "ants": 1237,
      "Ġexplore": 1238,
      "arly": 1239,
      "Ġimpact": 1240,
      "iel": 1241,
      "Ġaddress": 1242,
      "Ġlong": 1243,
      "earch": 1244,
      "ĠUnderstanding": 1245,
      "Ġele": 1246,
      "air": 1247,
      "Ġsocial": 1248,
      "Ġmarketing": 1249,
      "Ġpop": 1250,
      "Ġthroughout": 1251,
      "Ġenab": 1252,
      "fact": 1253,
      "Ġsever": 1254,
      "ĠThrough": 1255,
      "Ġremain": 1256,
      "Ġhelp": 1257,
      "atch": 1258,
      "Ġpart": 1259,
      "ĠHowever": 1260,
      "Ġris": 1261,
      "mental": 1262,
      "Ġgain": 1263,
      "ograph": 1264,
      "Ġmaterial": 1265,
      "Ġcompon": 1266,
      "Ġemploy": 1267,
      "Ġ'": 1268,
      "Ġrequir": 1269,
      "Ġcollabor": 1270,
      "ied": 1271,
      "ins": 1272,
      "Ġskills": 1273,
      "Ġsystems": 1274,
      "Con": 1275,
      "Ġdifferent": 1276,
      "oreover": 1277,
      "Ġlearning": 1278,
      "ored": 1279,
      "und": 1280,
      "Ġtravel": 1281,
      "ysis": 1282,
      "ĠAm": 1283,
      "Ġiniti": 1284,
      "ledge": 1285,
      "ourn": 1286,
      "Ġcomplex": 1287,
      "Ġstand": 1288,
      "care": 1289,
      "Ġcould": 1290,
      "rand": 1291,
      "Ġmanagement": 1292,
      "udi": 1293,
      "'t": 1294,
      "Ġexperiences": 1295,
      "Ġcle": 1296,
      "Ġmust": 1297,
      "Ġassoci": 1298,
      "atures": 1299,
      "acter": 1300,
      "Ġprin": 1301,
      "fter": 1302,
      "alu": 1303,
      "Ġhis": 1304,
      "lection": 1305,
      "Ġlevel": 1306,
      "Ġtw": 1307,
      "pir": 1308,
      "Ġmethod": 1309,
      "Ġinflu": 1310,
      "Ġcreate": 1311,
      "Ġoptim": 1312,
      "umer": 1313,
      "Ġnecess": 1314,
      "ĠCons": 1315,
      "Ġbre": 1316,
      "ength": 1317,
      "Ġresources": 1318,
      "ensive": 1319,
      "Ġresearch": 1320,
      "Ġpolic": 1321,
      "yn": 1322,
      "aus": 1323,
      "Ġsupp": 1324,
      "ield": 1325,
      "Ġaround": 1326,
      "ĠMan": 1327,
      "Ġactiv": 1328,
      "yz": 1329,
      "ufact": 1330,
      "Ġtechnology": 1331,
      "Ġaspects": 1332,
      "Ġow": 1333,
      "Ġeven": 1334,
      "Ġperformance": 1335,
      "Ġimm": 1336,
      "other": 1337,
      "Ġreduc": 1338,
      "Ġsupport": 1339,
      "Ġoffers": 1340,
      "ĠWith": 1341,
      "Ġintern": 1342,
      "ological": 1343,
      "Ġsch": 1344,
      "ĠWe": 1345,
      "lement": 1346,
      "ble": 1347,
      "Ġfactors": 1348,
      "Ġcommunication": 1349,
      "ock": 1350,
      "to": 1351,
      "Ġfurther": 1352,
      "ditions": 1353,
      "iving": 1354,
      "ick": 1355,
      "lying": 1356,
      "Ġeffici": 1357,
      "Ġorganiz": 1358,
      "ording": 1359,
      "Ġaim": 1360,
      "Ġweb": 1361,
      "Ġensure": 1362,
      "Ġteam": 1363,
      "Ġdeep": 1364,
      "ior": 1365,
      "Ġdigital": 1366,
      "reci": 1367,
      "Ġsuccessful": 1368,
      "Ġmon": 1369,
      "tice": 1370,
      "IV": 1371,
      "Ġpublic": 1372,
      "Ġissues": 1373,
      "ĠComm": 1374,
      "str": 1375,
      "Ġif": 1376,
      "struc": 1377,
      "Ġservices": 1378,
      "Ġlocal": 1379,
      "ending": 1380,
      "Ġ**": 1381,
      "Ġcho": 1382,
      "ĠStud": 1383,
      "Ġleg": 1384,
      "Ġcontrol": 1385,
      "iver": 1386,
      "Ġfostering": 1387,
      "ild": 1388,
      "Ġproviding": 1389,
      "Ġaw": 1390,
      "Ġfuture": 1391,
      "ĠDevelop": 1392,
      "ĠSh": 1393,
      "Ġfam": 1394,
      "Ġposs": 1395,
      "vement": 1396,
      "Ġbenefits": 1397,
      "ertain": 1398,
      "Ġdep": 1399,
      "Ġregarding": 1400,
      "ĠPl": 1401,
      "Ġexc": 1402,
      "Ġexample": 1403,
      "Ġbefore": 1404,
      "III": 1405,
      "Ġplan": 1406,
      "cept": 1407,
      "Introduction": 1408,
      "ange": 1409,
      "ĠExam": 1410,
      "Ġpromo": 1411,
      "Ġbr": 1412,
      "ditionally": 1413,
      "Ġeffor": 1414,
      "orical": 1415,
      "Ġconsist": 1416,
      "Ġlo": 1417,
      "Ġidentif": 1418,
      "Ġself": 1419,
      "Ġinformation": 1420,
      "Ġknowledge": 1421,
      "Ġprev": 1422,
      "te": 1423,
      "Ġdiverse": 1424,
      "Ġend": 1425,
      "ether": 1426,
      "urity": 1427,
      "Ġdef": 1428,
      "ustain": 1429,
      "ĠStr": 1430,
      "elling": 1431,
      "Ġseveral": 1432,
      "ian": 1433,
      "Ġeducation": 1434,
      "reh": 1435,
      "Ġrepres": 1436,
      "ĠTr": 1437,
      "Ġtools": 1438,
      "Ġwell": 1439,
      "Ġassociated": 1440,
      "arch": 1441,
      "ciples": 1442,
      "ug": 1443,
      "amp": 1444,
      "Ġopen": 1445,
      "00": 1446,
      "the": 1447,
      "Conclusion": 1448,
      "Ġincorpor": 1449,
      "Ġappreci": 1450,
      "Ġcri": 1451,
      "Ġestablish": 1452,
      "erc": 1453,
      "Ġagain": 1454,
      "Ġdire": 1455,
      "Ġcompan": 1456,
      "ix": 1457,
      "app": 1458,
      "âĢĶ": 1459,
      "Ġsignificantly": 1460,
      "Ġcreating": 1461,
      "ilit": 1462,
      "Ġaff": 1463,
      "Ġemo": 1464,
      "onstr": 1465,
      "Ġconnec": 1466,
      "Ġonly": 1467,
      "Wh": 1468,
      "arget": 1469,
      "Ġfound": 1470,
      "Ġcomponents": 1471,
      "atives": 1472,
      "Ġinstance": 1473,
      "ancial": 1474,
      "Ġtraditional": 1475,
      "Ġguid": 1476,
      "Ġonline": 1477,
      "uch": 1478,
      "ner": 1479,
      "Ġelements": 1480,
      "ators": 1481,
      "Ġhand": 1482,
      "Ġdri": 1483,
      "Ġauth": 1484,
      "Ġplatforms": 1485,
      "Ġlife": 1486,
      "raf": 1487,
      "Ġmake": 1488,
      "ĠDes": 1489,
      "ĠOver": 1490,
      "du": 1491,
      "Ġvisual": 1492,
      "omm": 1493,
      "Ġquality": 1494,
      "Ġneeds": 1495,
      "andsc": 1496,
      "Ġmaintaining": 1497,
      "ash": 1498,
      "Ġdi": 1499,
      "Ġcase": 1500,
      "ember": 1501,
      "Ġbet": 1502,
      "Ġrelationships": 1503,
      "Ġaudi": 1504,
      "Ġparticular": 1505,
      "ĠCol": 1506,
      "Ġbusinesses": 1507,
      "Ġcent": 1508,
      "Ġminim": 1509,
      "ĠĠĠĠ": 1510,
      "ream": 1511,
      "action": 1512,
      "Ġsetting": 1513,
      "ĠAnal": 1514,
      "aling": 1515,
      "Step": 1516,
      "Ġcost": 1517,
      "ense": 1518,
      "ption": 1519,
      "Ġallows": 1520,
      "urn": 1521,
      "Ġtwo": 1522,
      "As": 1523,
      "Ġunderstand": 1524,
      "Ġalong": 1525,
      "omes": 1526,
      "Ġimplement": 1527,
      "Ġphys": 1528,
      "yond": 1529,
      "Ġbeyond": 1530,
      "orld": 1531,
      "Ġregul": 1532,
      "Ġagainst": 1533,
      "road": 1534,
      "Ġmean": 1535,
      "Ġpati": 1536,
      "Ġ3": 1537,
      "ier": 1538,
      "ject": 1539,
      "ined": 1540,
      "Ġjourn": 1541,
      "ergy": 1542,
      "Ġstruc": 1543,
      "Ġcommunity": 1544,
      "Ġcar": 1545,
      "ĠTo": 1546,
      "Ġusers": 1547,
      "Ġadap": 1548,
      "Ġdemonstr": 1549,
      "Ġmeas": 1550,
      "Ġnavig": 1551,
      "Ġtoday": 1552,
      "hie": 1553,
      "ynam": 1554,
      "ĠWhile": 1555,
      "Ġresul": 1556,
      "ĠCont": 1557,
      "Ġcontribute": 1558,
      "Ġencoura": 1559,
      "Ġsoci": 1560,
      "Ġachie": 1561,
      "Ġtop": 1562,
      "Ġimportance": 1563,
      "Ġpresent": 1564,
      "Ġlim": 1565,
      "Ġmanufact": 1566,
      "ĠTra": 1567,
      "ĠComp": 1568,
      "Ġcontent": 1569,
      "Ġdown": 1570,
      "ĠAdditionally": 1571,
      "Ġuser": 1572,
      "Ġhighl": 1573,
      "ists": 1574,
      "plications": 1575,
      "ĠRes": 1576,
      "ĠMoreover": 1577,
      "Ġengagement": 1578,
      "ĠLet": 1579,
      "Ġindustry": 1580,
      "Ġlandsc": 1581,
      "Ġsustain": 1582,
      "Ġcomb": 1583,
      "Ġcharacter": 1584,
      "vity": 1585,
      "ade": 1586,
      "Ġgra": 1587,
      "Ġprim": 1588,
      "Ġbetter": 1589,
      "Ġcompe": 1590,
      "Ġrelev": 1591,
      "Ġbel": 1592,
      "Ġcultural": 1593,
      "Ġgover": 1594,
      "Ġexploring": 1595,
      "Ġfirst": 1596,
      "timately": 1597,
      "ee": 1598,
      "Ġhuman": 1599,
      "Ġprocesses": 1600,
      "aces": 1601,
      "Ġpers": 1602,
      "ene": 1603,
      "Ġmodern": 1604,
      "Ġtransform": 1605,
      "rit": 1606,
      "ĠDis": 1607,
      "Ġbeen": 1608,
      "Ġ201": 1609,
      "Ġprinciples": 1610,
      "Ġvalu": 1611,
      "Ġdev": 1612,
      "ote": 1613,
      "empor": 1614,
      "ĠExpl": 1615,
      "Ġpass": 1616,
      "Ġincreasing": 1617,
      "ware": 1618,
      "ll": 1619,
      "Ġread": 1620,
      "Ġenhance": 1621,
      "ced": 1622,
      "akes": 1623,
      "ferences": 1624,
      "ĠPrac": 1625,
      "Ġorganizations": 1626,
      "Ġet": 1627,
      "ĠRec": 1628,
      "Ġutil": 1629,
      "Ġaut": 1630,
      "aring": 1631,
      "Ġsafety": 1632,
      "Ġbal": 1633,
      "up": 1634,
      "ĠDef": 1635,
      "isions": 1636,
      "ĠTechn": 1637,
      "Ġcommit": 1638,
      "Ġpat": 1639,
      "ration": 1640,
      "Ġused": 1641,
      "Ġpoli": 1642,
      "inal": 1643,
      "Ġcompreh": 1644,
      "Ġcontinu": 1645,
      "Ġapplications": 1646,
      "ression": 1647,
      "Ġspecific": 1648,
      "Ġmany": 1649,
      "Ġconcern": 1650,
      "Ġtarget": 1651,
      "Ġmultiple": 1652,
      "idence": 1653,
      "Ġmethods": 1654,
      "Ġfocusing": 1655,
      "ologies": 1656,
      "Ġinvest": 1657,
      "ooking": 1658,
      "Ġbecome": 1659,
      "Ġsit": 1660,
      "obal": 1661,
      "Ġstrength": 1662,
      "iec": 1663,
      "encies": 1664,
      "ries": 1665,
      "Ġtail": 1666,
      "Ġstudy": 1667,
      "ĠOn": 1668,
      "Ġtake": 1669,
      "atis": 1670,
      "more": 1671,
      "phas": 1672,
      "pos": 1673,
      "ĠCl": 1674,
      "lecting": 1675,
      "Ġleading": 1676,
      "To": 1677,
      "istic": 1678,
      "Ġsurround": 1679,
      "ars": 1680,
      "Ġfeatures": 1681,
      "Ġvalue": 1682,
      "ĠInd": 1683,
      "Ġrequires": 1684,
      "inary": 1685,
      "ĠSo": 1686,
      "Ġlevels": 1687,
      "Ġparticip": 1688,
      "Ġconsum": 1689,
      "Ġspecial": 1690,
      "Ġyear": 1691,
      "ters": 1692,
      "echan": 1693,
      "au": 1694,
      "oot": 1695,
      "Ġcor": 1696,
      "Ġjust": 1697,
      "Ġinvolves": 1698,
      "ĠStrateg": 1699,
      "term": 1700,
      "ests": 1701,
      "ĠHe": 1702,
      "Ġart": 1703,
      "urthermore": 1704,
      "Ġfinancial": 1705,
      "Ġcul": 1706,
      "Ġseeking": 1707,
      "Ġpopular": 1708,
      "Ġbest": 1709,
      "ired": 1710,
      "Ġbrand": 1711,
      "Ġavail": 1712,
      "Ġdoes": 1713,
      "tif": 1714,
      "Ġeffective": 1715,
      "thers": 1716,
      "Ġshow": 1717,
      "Ġrecogn": 1718,
      "Ġshap": 1719,
      "raw": 1720,
      "oid": 1721,
      "Section": 1722,
      "emporary": 1723,
      "Ġpromoting": 1724,
      "Ġoptions": 1725,
      "rop": 1726,
      "jects": 1727,
      "Ġmaterials": 1728,
      "Ġevol": 1729,
      "arra": 1730,
      "Ġeffectively": 1731,
      "ĠOne": 1732,
      "pre": 1733,
      "Ġpriv": 1734,
      "racing": 1735,
      "Ġdirect": 1736,
      "Ġallowing": 1737,
      "Ġfollowing": 1738,
      "Ġmost": 1739,
      "sequ": 1740,
      "itiz": 1741,
      "Ġmusic": 1742,
      "ral": 1743,
      "Ġproducts": 1744,
      "Ġthough": 1745,
      "ery": 1746,
      "elves": 1747,
      "self": 1748,
      "Ġextract": 1749,
      "Ġcommon": 1750,
      "Ġtrust": 1751,
      "ari": 1752,
      "Ġfil": 1753,
      "Ġmedia": 1754,
      "Ġdynam": 1755,
      "Ġefforts": 1756,
      "ising": 1757,
      "Ġconditions": 1758,
      "fully": 1759,
      "Ġproduct": 1760,
      "Ġful": 1761,
      "VI": 1762,
      "Ġcritical": 1763,
      "oration": 1764,
      "ĠReg": 1765,
      "ource": 1766,
      "Ġbroad": 1767,
      "Ġprovides": 1768,
      "Ġgre": 1769,
      "Ġjourney": 1770,
      "rams": 1771,
      "Ġsty": 1772,
      "ink": 1773,
      "isting": 1774,
      "Ġvaluable": 1775,
      "Ġdeliver": 1776,
      "Ġsens": 1777,
      "Ġstep": 1778,
      "Ġinformed": 1779,
      "Ġnecessary": 1780,
      "elines": 1781,
      "Ġill": 1782,
      "Ġnetw": 1783,
      "Ġgrou": 1784,
      "Ġter": 1785,
      "ĠId": 1786,
      "Ġpoin": 1787,
      "Ġtrends": 1788,
      "ĠBe": 1789,
      "Ġintric": 1790,
      "Ġvers": 1791,
      "Ġstrong": 1792,
      "Ġconnections": 1793,
      "actions": 1794,
      "aving": 1795,
      "ĠPre": 1796,
      "eric": 1797,
      "Ġanalyz": 1798,
      "Ġsolutions": 1799,
      "orks": 1800,
      "duce": 1801,
      "ening": 1802,
      "Ġbehav": 1803,
      "Ġrepresent": 1804,
      "ĠQ": 1805,
      "ĠFurthermore": 1806,
      "ifically": 1807,
      "go": 1808,
      "Ġhealthcare": 1809,
      "urr": 1810,
      "ĠMarket": 1811,
      "atory": 1812,
      "ĠCase": 1813,
      "Ġareas": 1814,
      "Ġide": 1815,
      "ĠConclusion": 1816,
      "Ġtreat": 1817,
      "tention": 1818,
      "ason": 1819,
      "Ġconcerns": 1820,
      "umb": 1821,
      "Ġempower": 1822,
      ":**": 1823,
      "Ġevents": 1824,
      "Ġes": 1825,
      "Ġenergy": 1826,
      "comes": 1827,
      "itions": 1828,
      "Ġdecision": 1829,
      "cc": 1830,
      "osing": 1831,
      "aries": 1832,
      "Ġupon": 1833,
      "ecting": 1834,
      "ails": 1835,
      "Ġpattern": 1836,
      "Ġnumer": 1837,
      "ale": 1838,
      "Ġown": 1839,
      "Ġcommunities": 1840,
      "Ġafter": 1841,
      "Ġothers": 1842,
      "conom": 1843,
      "Ġrest": 1844,
      "Ġenhancing": 1845,
      "Ġlaw": 1846,
      "Ġactivities": 1847,
      "hing": 1848,
      "atic": 1849,
      "Ġgr": 1850,
      "tig": 1851,
      "Ġcustomer": 1852,
      "Ġmen": 1853,
      "Ġmental": 1854,
      "Ġartist": 1855,
      "Ġview": 1856,
      "----------------": 1857,
      "ĠOr": 1858,
      "Ġaltern": 1859,
      "ground": 1860,
      "ĠConsider": 1861,
      "ane": 1862,
      "ĠAss": 1863,
      "ĠThey": 1864,
      "Ġwhy": 1865,
      "ĠChris": 1866,
      "Ġless": 1867,
      "ones": 1868,
      "rain": 1869,
      "Ġsurrounding": 1870,
      "oss": 1871,
      "Ġadapt": 1872,
      "Ġevalu": 1873,
      "Ġclass": 1874,
      "ium": 1875,
      "by": 1876,
      "ming": 1877,
      "Ġbeing": 1878,
      "Ġbuilding": 1879,
      "Ġcaus": 1880,
      "pite": 1881,
      "atural": 1882,
      "Ġprovided": 1883,
      "Ġlar": 1884,
      "ually": 1885,
      "Ġincorporating": 1886,
      "ym": 1887,
      "Ġoutcomes": 1888,
      "Ġpost": 1889,
      "be": 1890,
      "Ġnarra": 1891,
      "ole": 1892,
      "abilities": 1893,
      "Ġphysical": 1894,
      "ury": 1895,
      "Ġdelve": 1896,
      "Ġfacilit": 1897,
      "Ġtailored": 1898,
      "ilar": 1899,
      "Ġensures": 1900,
      "Ġgovern": 1901,
      "ystem": 1902,
      "Ġmechan": 1903,
      "Ġprofessionals": 1904,
      "ĠPh": 1905,
      "Ġseem": 1906,
      "Ġrelevant": 1907,
      "ĠChristi": 1908,
      "Ġve": 1909,
      "pri": 1910,
      "Ġdecisions": 1911,
      "Ġpiec": 1912,
      "Ġmeaning": 1913,
      "Ġcompeti": 1914,
      "Ġnumerous": 1915,
      "Ġintro": 1916,
      "pr": 1917,
      "Ġvia": 1918,
      "Ġfield": 1919,
      "ulation": 1920,
      "ĠAmeric": 1921,
      "Ġstory": 1922,
      "Ġcurr": 1923,
      "Ġglobal": 1924,
      "ĠEnc": 1925,
      "Ġ4": 1926,
      "inating": 1927,
      "avor": 1928,
      "Ġmind": 1929,
      "Ġanalysis": 1930,
      "Ġdesigned": 1931,
      "iod": 1932,
      "Ġsecurity": 1933,
      "'re": 1934,
      "fort": 1935,
      "Ġfund": 1936,
      "port": 1937,
      "Ġenables": 1938,
      "pective": 1939,
      "Ġvalues": 1940,
      "Ġcli": 1941,
      "ives": 1942,
      "Ġmaking": 1943,
      "Ġret": 1944,
      "Ġlearn": 1945,
      "Ġconclusion": 1946,
      "Ġinternational": 1947,
      "Ġhistorical": 1948,
      "Ġengage": 1949,
      "Ġemphas": 1950,
      "icial": 1951,
      "Ġlimit": 1952,
      "az": 1953,
      "redi": 1954,
      "ople": 1955,
      "Ġserve": 1956,
      "embers": 1957,
      "Ġcollaboration": 1958,
      "Ġques": 1959,
      "Ġrates": 1960,
      "ĠPer": 1961,
      "Ġsal": 1962,
      "ores": 1963,
      "Ġincreased": 1964,
      "Ġresili": 1965,
      "Ġleaders": 1966,
      "Ġear": 1967,
      "Ġing": 1968,
      "Ġyourself": 1969,
      "asc": 1970,
      "Ġsug": 1971,
      "Ġway": 1972,
      "Ġfoster": 1973,
      "Ġimprove": 1974,
      "Ġproduction": 1975,
      "Ġalign": 1976,
      "ĠWhen": 1977,
      "Ġhome": 1978,
      "Ġul": 1979,
      "Ġconcept": 1980,
      "ames": 1981,
      "Ġuse": 1982,
      "ĠKey": 1983,
      "Ġanother": 1984,
      "Ġassess": 1985,
      "ĠSe": 1986,
      "Ġcraf": 1987,
      "acks": 1988,
      "ody": 1989,
      "ĠPol": 1990,
      "red": 1991,
      "br": 1992,
      "asts": 1993,
      "Ġther": 1994,
      "Ġclos": 1995,
      "Ġsw": 1996,
      "Ġvital": 1997,
      "Ġdive": 1998,
      "ats": 1999,
      "hold": 2000,
      "Ġpatterns": 2001,
      "ball": 2002,
      "Ġinnovation": 2003,
      "Ġlay": 2004,
      "Ġautom": 2005,
      "lex": 2006,
      "ĠAt": 2007,
      "back": 2008,
      "Ġtal": 2009,
      "Ġavailable": 2010,
      "Ġshould": 2011,
      "Ġpress": 2012,
      "Ġscen": 2013,
      "antages": 2014,
      "ises": 2015,
      "Ġprograms": 2016,
      "ik": 2017,
      "Ġaddressing": 2018,
      "ipp": 2019,
      "Ġstate": 2020,
      "Ġaccur": 2021,
      "angu": 2022,
      "aching": 2023,
      "Ġsoft": 2024,
      "Ġchild": 2025,
      "cri": 2026,
      "sing": 2027,
      "Ġplays": 2028,
      "ounter": 2029,
      "Ġprior": 2030,
      "of": 2031,
      "Ġlandscape": 2032,
      "utical": 2033,
      "ission": 2034,
      "ict": 2035,
      "Ġconven": 2036,
      "Ġhelps": 2037,
      "Ġgoals": 2038,
      "Ġfunctional": 2039,
      "Ġel": 2040,
      "Ġremains": 2041,
      "ĠMe": 2042,
      "Ġnon": 2043,
      "Ġplanning": 2044,
      "aceutical": 2045,
      "Ġappe": 2046,
      "areness": 2047,
      "Ġaspect": 2048,
      "armaceutical": 2049,
      "ips": 2050,
      "ool": 2051,
      "ighting": 2052,
      "Ġcertain": 2053,
      "ĠEncoura": 2054,
      "ren": 2055,
      "Ġprogram": 2056,
      "Ġfeel": 2057,
      "rim": 2058,
      "asting": 2059,
      "Ġmembers": 2060,
      "Ġwater": 2061,
      "Ġarts": 2062,
      "Ġmar": 2063,
      "Ġsitu": 2064,
      "Ġyet": 2065,
      "ger": 2066,
      "iance": 2067,
      "Ġcount": 2068,
      "Ġpartners": 2069,
      "ĠStudy": 2070,
      "Ġsignificance": 2071,
      "Ġstay": 2072,
      "Ġfre": 2073,
      "cepts": 2074,
      "ected": 2075,
      "Ġrisks": 2076,
      "sy": 2077,
      "First": 2078,
      "ĠOverview": 2079,
      "ites": 2080,
      "Ġwhether": 2081,
      "âĢĻ": 2082,
      "Ġded": 2083,
      "Ġculture": 2084,
      "Ġappropri": 2085,
      "hes": 2086,
      "Ġrecent": 2087,
      "Ġskin": 2088,
      "##": 2089,
      "uid": 2090,
      "Ġinnovative": 2091,
      "ways": 2092,
      "Ġshared": 2093,
      "ously": 2094,
      "Ġsym": 2095,
      "irc": 2096,
      "Ġsimilar": 2097,
      "ocu": 2098,
      "time": 2099,
      "ension": 2100,
      "aps": 2101,
      "Ġeth": 2102,
      "Ġneg": 2103,
      "Ġsuppor": 2104,
      "Ġchange": 2105,
      "Ġbecomes": 2106,
      "Ġrob": 2107,
      "Ġmeasures": 2108,
      "Ġinvolved": 2109,
      "Ġtypes": 2110,
      "Ġshaping": 2111,
      "Ġparticularly": 2112,
      "making": 2113,
      "inition": 2114,
      "Ġocc": 2115,
      "Ġwas": 2116,
      "ĠIns": 2117,
      "ĠSu": 2118,
      "Ġengaging": 2119,
      "Ġharm": 2120,
      "Ġspecifically": 2121,
      "Ġpreferences": 2122,
      "Ġmem": 2123,
      "ĠPersonal": 2124,
      "Ġstri": 2125,
      "Ġwebs": 2126,
      "Ġmanufacturing": 2127,
      "Ġeconom": 2128,
      "Ġrequirements": 2129,
      "Ġaccording": 2130,
      "Ġprec": 2131,
      "Ġservice": 2132,
      "just": 2133,
      "ĠAcc": 2134,
      "Ġcontemporary": 2135,
      "ĠDevelopment": 2136,
      "Ġinstit": 2137,
      "entic": 2138,
      "Ġstrategic": 2139,
      "ĠCommun": 2140,
      "ended": 2141,
      "Ġcomprehensive": 2142,
      "Ġbehind": 2143,
      "Ġclear": 2144,
      "ward": 2145,
      "ective": 2146,
      "ĠInt": 2147,
      "Ġexamining": 2148,
      "Ġpeople": 2149,
      "ĠEv": 2150,
      "ĠStrategies": 2151,
      "Ġnatural": 2152,
      "Ġpositive": 2153,
      "Ġultimately": 2154,
      "Ġapplication": 2155,
      "based": 2156,
      "ĠHist": 2157,
      "ince": 2158,
      "Ġcover": 2159,
      "wh": 2160,
      "eper": 2161,
      "Ġenj": 2162,
      "Ġrather": 2163,
      "Ġfood": 2164,
      "Ġearly": 2165,
      "axim": 2166,
      "Ġ19": 2167,
      "Ġpractice": 2168,
      "atisf": 2169,
      "Ġlight": 2170,
      "icate": 2171,
      "Ġspir": 2172,
      "Key": 2173,
      "ĠDesign": 2174,
      "Ġelect": 2175,
      "ered": 2176,
      "Ġsci": 2177,
      "going": 2178,
      "play": 2179,
      "Ġbi": 2180,
      "Ġgame": 2181,
      "Ġ5": 2182,
      "Ġattention": 2183,
      "tual": 2184,
      "Ġtraining": 2185,
      "ĠMed": 2186,
      "Ġne": 2187,
      "izes": 2188,
      "Ġyears": 2189,
      "ĠSp": 2190,
      "mentation": 2191,
      "ees": 2192,
      "Ġtechnologies": 2193,
      "ĠChristian": 2194,
      "Ġdraw": 2195,
      "Ġresults": 2196,
      "aste": 2197,
      "Ġresponsible": 2198,
      "Ġexpect": 2199,
      "oth": 2200,
      "Ġapproaches": 2201,
      "Ġenti": 2202,
      "Ġregular": 2203,
      "Ġingredi": 2204,
      "Ġnature": 2205,
      "Ġcomes": 2206,
      "Ex": 2207,
      "sych": 2208,
      "Ġemer": 2209,
      "Ġlegal": 2210,
      "uts": 2211,
      "ĠTrans": 2212,
      "Ġrig": 2213,
      "Ġcred": 2214,
      "Ġbuild": 2215,
      "Ġoptimal": 2216,
      "Ġfoot": 2217,
      "iliar": 2218,
      "Ġshare": 2219,
      "An": 2220,
      "Ġmanaging": 2221,
      "Ġrisk": 2222,
      "Ġbalance": 2223,
      "world": 2224,
      "ĠInter": 2225,
      "Ġthought": 2226,
      "Ġtimes": 2227,
      "Ġresilience": 2228,
      "omet": 2229,
      "Ġsmall": 2230,
      "esting": 2231,
      "Ġtour": 2232,
      "Ġregion": 2233,
      "This": 2234,
      "oms": 2235,
      "Ġfeed": 2236,
      "atter": 2237,
      "Ġdistin": 2238,
      "isms": 2239,
      "Ġemotional": 2240,
      "Ġrobust": 2241,
      "Ġenvironmental": 2242,
      "Ġexamine": 2243,
      "Ġmedical": 2244,
      "ute": 2245,
      "Ġimplications": 2246,
      "Ġconvers": 2247,
      "Ġenabling": 2248,
      "Ġorig": 2249,
      "Ġenjoy": 2250,
      "Ġbroader": 2251,
      "ele": 2252,
      "istance": 2253,
      "Ġinv": 2254,
      "ĠFrom": 2255,
      "Ġprogress": 2256,
      "Ġworks": 2257,
      "min": 2258,
      "Ġadop": 2259,
      "uilding": 2260,
      "Ġreducing": 2261,
      "ĠHealth": 2262,
      "Ġpolicies": 2263,
      "pecial": 2264,
      "Ġcamp": 2265,
      "omen": 2266,
      "Ġpain": 2267,
      "Ġmess": 2268,
      "ĠSc": 2269,
      "Ġprevent": 2270,
      "Ġability": 2271,
      "agn": 2272,
      "Ġpay": 2273,
      "Ġamid": 2274,
      "Ġcommitment": 2275,
      "ĠSim": 2276,
      "itual": 2277,
      "plif": 2278,
      "oph": 2279,
      "Ġvide": 2280,
      "Ġplayers": 2281,
      "tivity": 2282,
      "Ġenvironment": 2283,
      "Ġhigher": 2284,
      "Ġmeet": 2285,
      "ĠFin": 2286,
      "Ġcustomers": 2287,
      "ewel": 2288,
      "Ġcompared": 2289,
      "ules": 2290,
      "ipment": 2291,
      "Ġworking": 2292,
      "enced": 2293,
      "Ġserves": 2294,
      "Ġtoget": 2295,
      "Ġtogether": 2296,
      "Ġefficiency": 2297,
      "Ġstudies": 2298,
      "Ġlangu": 2299,
      "Ġdeeper": 2300,
      "Ġupd": 2301,
      "Ġstruct": 2302,
      "ĠDefinition": 2303,
      "Ġprofessional": 2304,
      "pro": 2305,
      "Ġdiscover": 2306,
      "Ġchanges": 2307,
      "Ġrefers": 2308,
      "ove": 2309,
      "ĠPar": 2310,
      "Ġund": 2311,
      "ĠImportance": 2312,
      "ĠCre": 2313,
      "Ġincreasingly": 2314,
      "ĠIdentif": 2315,
      "urance": 2316,
      "ĠBl": 2317,
      "orous": 2318,
      "tle": 2319,
      "encing": 2320,
      "Ġsatisf": 2321,
      "Ġer": 2322,
      "Ġbehavior": 2323,
      "Ġidenti": 2324,
      "ibr": 2325,
      "Ġmy": 2326,
      "Ġwould": 2327,
      "ots": 2328,
      "ĠGod": 2329,
      "Ġlif": 2330,
      "Ġconstruc": 2331,
      "ativity": 2332,
      "ems": 2333,
      "20": 2334,
      "ĠRole": 2335,
      "ĠMod": 2336,
      "Ġfind": 2337,
      "Ġkeep": 2338,
      "ĠEduc": 2339,
      "Ġappropriate": 2340,
      "Ġrich": 2341,
      "Ġvir": 2342,
      "ived": 2343,
      "ĠAnalysis": 2344,
      "Ġeducational": 2345,
      "Ġdeterm": 2346,
      "Ġperiod": 2347,
      "Ġcurrent": 2348,
      "Ġcosts": 2349,
      "Ġresult": 2350,
      "ultural": 2351,
      "Ġcompanies": 2352,
      "Ġmaxim": 2353,
      "Ġalike": 2354,
      "Ġcy": 2355,
      "ĠAdv": 2356,
      "Ġhistory": 2357,
      "oh": 2358,
      "Ġenvironments": 2359,
      "de": 2360,
      "Ġtas": 2361,
      "Ġprojects": 2362,
      "Ġtri": 2363,
      "Ġlies": 2364,
      "jectives": 2365,
      "Ġcirc": 2366,
      "part": 2367,
      "Ġtem": 2368,
      "Ġconcepts": 2369,
      "Ġmade": 2370,
      "Ġrece": 2371,
      "Ġeas": 2372,
      "**:": 2373,
      "aign": 2374,
      "Now": 2375,
      "Ġlist": 2376,
      "quality": 2377,
      "ibilities": 2378,
      "orm": 2379,
      "iter": 2380,
      "Ġstream": 2381,
      "Ġadvance": 2382,
      "Ġemerg": 2383,
      "oday": 2384,
      "Ġappreciation": 2385,
      "edi": 2386,
      "Ġknown": 2387,
      "Ġforms": 2388,
      "Ġcollec": 2389,
      "Ġimport": 2390,
      "vention": 2391,
      "Ġright": 2392,
      "Ġpowerful": 2393,
      "Ġtext": 2394,
      "umm": 2395,
      "Ġprimary": 2396,
      "Ġstrategy": 2397,
      "ĠMarketing": 2398,
      "urs": 2399,
      "tise": 2400,
      "hic": 2401,
      "inking": 2402,
      "Ġran": 2403,
      "Ġshif": 2404,
      "ewelry": 2405,
      "amless": 2406,
      "ustr": 2407,
      "Ġthems": 2408,
      "Ġinitiatives": 2409,
      "Ġthemselves": 2410,
      "Ġones": 2411,
      "ĠDisc": 2412,
      "Ġstandards": 2413,
      "Ġexerc": 2414,
      "Ġidentify": 2415,
      "ĠBusiness": 2416,
      "ener": 2417,
      "Ġroles": 2418,
      "Ġreli": 2419,
      "Ġconst": 2420,
      "Ġcultiv": 2421,
      "Ġchallenging": 2422,
      "Ġadditional": 2423,
      "Ġsteps": 2424,
      "Ġvol": 2425,
      "Ġmonit": 2426,
      "Ġsound": 2427,
      "Ġembracing": 2428,
      "Ġvari": 2429,
      "ĠNew": 2430,
      "apy": 2431,
      "Ġaction": 2432,
      "ĠAmerican": 2433,
      "aster": 2434,
      "ouse": 2435,
      "Ġongoing": 2436,
      "Ġsoftware": 2437,
      "Ġcall": 2438,
      "Ġconsistent": 2439,
      "Ġec": 2440,
      "Ġmention": 2441,
      "Ġpolitical": 2442,
      "Ġappear": 2443,
      "Ġpast": 2444,
      "Ġdeb": 2445,
      "Ġprivacy": 2446,
      "ender": 2447,
      "oint": 2448,
      "Ġtoo": 2449,
      "Ġfram": 2450,
      "Ġsharing": 2451,
      "Ġage": 2452,
      "Ġflex": 2453,
      "Ġimproved": 2454,
      "ox": 2455,
      "Ġexisting": 2456,
      "Ġsettings": 2457,
      "Ġinterest": 2458,
      "Ġpharmaceutical": 2459,
      "Ġrigorous": 2460,
      "Ġdam": 2461,
      "eck": 2462,
      "utri": 2463,
      "ĠSec": 2464,
      "erving": 2465,
      "ialog": 2466,
      "uter": 2467,
      "ĠToday": 2468,
      "oor": 2469,
      "Ġcross": 2470,
      "ident": 2471,
      "Ġamidst": 2472,
      "Ġcontain": 2473,
      "ours": 2474,
      "int": 2475,
      "Ġsources": 2476,
      "Ġoperations": 2477,
      "Ġpromote": 2478,
      "Ġquestions": 2479,
      "Ġproble": 2480,
      "Ġseamless": 2481,
      "Ġcareful": 2482,
      "Ġpros": 2483,
      "read": 2484,
      "till": 2485,
      "Ġimportant": 2486,
      "Ġexec": 2487,
      "ray": 2488,
      "Ġetc": 2489,
      "Ġadjust": 2490,
      "tenance": 2491,
      "Ġperson": 2492,
      "Ġspace": 2493,
      "Ġpolicy": 2494,
      "sc": 2495,
      "emic": 2496,
      "By": 2497,
      "ulations": 2498,
      "Ġrelationship": 2499,
      "nels": 2500,
      "Ġthree": 2501,
      "Ġshowc": 2502,
      "Ġcut": 2503,
      "Ġpath": 2504,
      "uty": 2505,
      "menting": 2506,
      "Ġauthentic": 2507,
      "itch": 2508,
      "Ġtypically": 2509,
      "orough": 2510,
      "Ġbar": 2511,
      "Ġscenari": 2512,
      "ishing": 2513,
      "Ġaccount": 2514,
      "istics": 2515,
      "Ġlever": 2516,
      "usive": 2517,
      "side": 2518,
      "ĠImple": 2519,
      "ĠUtil": 2520,
      "akehold": 2521,
      "Ġmom": 2522,
      "aily": 2523,
      "ran": 2524,
      "Ġver": 2525,
      "Ġexpand": 2526,
      "Ġlives": 2527,
      "utes": 2528,
      "den": 2529,
      "Ġachieve": 2530,
      "rypt": 2531,
      "ĠOp": 2532,
      "Ġcore": 2533,
      "ĠExper": 2534,
      "orn": 2535,
      "Ġposition": 2536,
      "Ġdocu": 2537,
      "Ġpoints": 2538,
      "Ġtransport": 2539,
      "uing": 2540,
      "Ġhy": 2541,
      "agine": 2542,
      "Ġintricate": 2543,
      "Ġartists": 2544,
      "ternal": 2545,
      "Ġwr": 2546,
      "esthe": 2547,
      "ides": 2548,
      "Ġconsiderations": 2549,
      "Ġempowerment": 2550,
      "ĠEff": 2551,
      "force": 2552,
      "Ġconduc": 2553,
      "Ġrequired": 2554,
      "Ġdevices": 2555,
      "'ll": 2556,
      "Ġexpectations": 2557,
      "Ġcomfort": 2558,
      "Ġinfluence": 2559,
      "Ġsustainable": 2560,
      "Ġclean": 2561,
      "Ġartis": 2562,
      "Ġexpos": 2563,
      "ribution": 2564,
      "ĠSystem": 2565,
      "Ġexploration": 2566,
      "wide": 2567,
      "Ġcompl": 2568,
      "19": 2569,
      "der": 2570,
      "Ġawareness": 2571,
      "ĠPower": 2572,
      "Ġbound": 2573,
      "Ġaimed": 2574,
      "place": 2575,
      "Ġsubst": 2576,
      "Ġbackground": 2577,
      "ords": 2578,
      "arily": 2579,
      "Ġdirectly": 2580,
      "ĠRem": 2581,
      "ĠHigh": 2582,
      "Ġcater": 2583,
      "Ġsince": 2584,
      "Ġsolid": 2585,
      "rics": 2586,
      "Ġshe": 2587,
      "ĠCo": 2588,
      "Ġvs": 2589,
      "piring": 2590,
      "ush": 2591,
      "pose": 2592,
      "Ġremember": 2593,
      "ux": 2594,
      "Ġdemand": 2595,
      "ĠManagement": 2596,
      "ooth": 2597,
      "usi": 2598,
      "Ġteams": 2599,
      "Ġdeveloping": 2600,
      "ode": 2601,
      "Ġthen": 2602,
      "Ġplace": 2603,
      "aged": 2604,
      "Ġproced": 2605,
      "being": 2606,
      "Ġmakes": 2607,
      "let": 2608,
      "ĠInst": 2609,
      "Ġavoid": 2610,
      "Ġcapabilities": 2611,
      "face": 2612,
      "aches": 2613,
      "Ġfunction": 2614,
      "Ġbeg": 2615,
      "Ġcreativity": 2616,
      "Ġaudiences": 2617,
      "Ġcontributing": 2618,
      "When": 2619,
      "ĠBut": 2620,
      "ography": 2621,
      "Ġadvanced": 2622,
      "Ġquick": 2623,
      "Ġreview": 2624,
      "Ġlook": 2625,
      "Ġengine": 2626,
      "Ġsecure": 2627,
      "Ġcampaign": 2628,
      "aj": 2629,
      "Ġgroups": 2630,
      "know": 2631,
      "Ġterms": 2632,
      "esearch": 2633,
      "Ġfamily": 2634,
      "Ġimplementing": 2635,
      "Ġequipment": 2636,
      "pass": 2637,
      "Ġways": 2638,
      "Ġoffering": 2639,
      "Ġpred": 2640,
      "Ġingredients": 2641,
      "Ġsing": 2642,
      "ĠEst": 2643,
      "Ġnavigate": 2644,
      "ticip": 2645,
      "ĠImpact": 2646,
      "ĠIf": 2647,
      "Ġtreatment": 2648,
      "pid": 2649,
      "ĠMus": 2650,
      "Ġproperty": 2651,
      "Ġlanguage": 2652,
      "Ġinj": 2653,
      "Ġbas": 2654,
      "ĠRel": 2655,
      "icated": 2656,
      "Ġdialog": 2657,
      "Ġfasc": 2658,
      "Ġobs": 2659,
      "Ġrele": 2660,
      "Ġhol": 2661,
      "Ġcreative": 2662,
      "Ġenable": 2663,
      "Ġvehic": 2664,
      "ugg": 2665,
      "Ġclients": 2666,
      "Ġgreater": 2667,
      "Ġprotection": 2668,
      "Ġge": 2669,
      "Ġstakehold": 2670,
      "raft": 2671,
      "Ġevidence": 2672,
      "Ġimprovement": 2673,
      "Ġproject": 2674,
      "Ġbody": 2675,
      "icro": 2676,
      "Ġmer": 2677,
      "Ġauthor": 2678,
      "Ġqual": 2679,
      "Ġcontinue": 2680,
      "Ġrecip": 2681,
      "ience": 2682,
      "etal": 2683,
      "Ġmentioned": 2684,
      "Ġconflic": 2685,
      "cipl": 2686,
      "Ġhere": 2687,
      "Ġdaily": 2688,
      "ĠServ": 2689,
      "Ġhar": 2690,
      "ĠArt": 2691,
      "Ġconsumers": 2692,
      "active": 2693,
      "Ġground": 2694,
      "Ġinstitutions": 2695,
      "Ġtranspar": 2696,
      "Ġcontinuous": 2697,
      "Ġmeaningful": 2698,
      "hood": 2699,
      "Ġpsych": 2700,
      "Ġstar": 2701,
      "anti": 2702,
      "acts": 2703,
      "Ġconnection": 2704,
      "Ġmodels": 2705,
      "tiveness": 2706,
      "Ġcal": 2707,
      "Ġnear": 2708,
      "aim": 2709,
      "Ġste": 2710,
      "hib": 2711,
      "ĠYour": 2712,
      "Ġcompany": 2713,
      "aff": 2714,
      "Ġcome": 2715,
      "Ġadvantages": 2716,
      "ĠSuch": 2717,
      "Ġinstead": 2718,
      "Ġappreciate": 2719,
      "itig": 2720,
      "ops": 2721,
      "Ġstories": 2722,
      "ĠMon": 2723,
      "Ġrespect": 2724,
      "Ġthemes": 2725,
      "Ġnext": 2726,
      "Ġpurs": 2727,
      "Ġguidelines": 2728,
      "Ġalternative": 2729,
      "Ġstructure": 2730,
      "athy": 2731,
      "acking": 2732,
      "Ġthorough": 2733,
      "ĠZ": 2734,
      "cle": 2735,
      "Ġaesthe": 2736,
      "ĠEng": 2737,
      "ber": 2738,
      "orts": 2739,
      "Ġanalyzing": 2740,
      "Ġphot": 2741,
      "Ġact": 2742,
      "Ġexpertise": 2743,
      "Ġlearners": 2744,
      "Ġpotentially": 2745,
      "Ġrights": 2746,
      "Ġhead": 2747,
      "riend": 2748,
      "ĠExamples": 2749,
      "epend": 2750,
      "io": 2751,
      "Ġseason": 2752,
      "Ġorganization": 2753,
      "Ġrequiring": 2754,
      "ope": 2755,
      "ios": 2756,
      "Ġreach": 2757,
      "itable": 2758,
      "Ġproperties": 2759,
      "One": 2760,
      "Ġresponse": 2761,
      "Ġactive": 2762,
      "ĠCollabor": 2763,
      "Ġfaced": 2764,
      "outh": 2765,
      "Ġarch": 2766,
      "Ġreput": 2767,
      "igence": 2768,
      "ĠAfter": 2769,
      "):": 2770,
      "Ġchannels": 2771,
      "fect": 2772,
      "Ġrun": 2773,
      "avors": 2774,
      "Ġpossible": 2775,
      "Ġdynamics": 2776,
      "Ġpatient": 2777,
      "Ġprepar": 2778,
      "Ġfeedback": 2779,
      "Ġgood": 2780,
      "ĠThere": 2781,
      "Ġacqu": 2782,
      "Ġmuch": 2783,
      "Ġcompos": 2784,
      "ĠBuilding": 2785,
      "Ġworldwide": 2786,
      "Ġshort": 2787,
      "minist": 2788,
      "pectives": 2789,
      "isc": 2790,
      "Ġvideo": 2791,
      "Ġsatisfaction": 2792,
      "Ġmach": 2793,
      "Ġmechanisms": 2794,
      "Ġrelated": 2795,
      "Ġhold": 2796,
      "Ġrecomm": 2797,
      "ĠResearch": 2798,
      "ĠOff": 2799,
      "Ġinterests": 2800,
      "fic": 2801,
      "Ġstress": 2802,
      "ĠApplic": 2803,
      "me": 2804,
      "Ġjewelry": 2805,
      "acters": 2806,
      "urb": 2807,
      "ĠLear": 2808,
      "Ġillustr": 2809,
      "Ġbu": 2810,
      "Ġchoices": 2811,
      "ounts": 2812,
      "Ġcapable": 2813,
      "Ġstructures": 2814,
      "ĠSch": 2815,
      "ĠData": 2816,
      "Ġstakeholders": 2817,
      "ĠIts": 2818,
      "Ġidentity": 2819,
      "Ġeffects": 2820,
      "ĠSome": 2821,
      "ited": 2822,
      "Ġfascinating": 2823,
      "Ġsearch": 2824,
      "Ġsyn": 2825,
      "Ġdetails": 2826,
      "Ġrefer": 2827,
      "Ġevent": 2828,
      "Ġtopics": 2829,
      "Ġdest": 2830,
      "Ġusage": 2831,
      "Ġmove": 2832,
      "osp": 2833,
      "Ġheav": 2834,
      "Ġcolor": 2835,
      "Ġinvolving": 2836,
      "avigating": 2837,
      "Ġnumb": 2838,
      "Ġimmers": 2839,
      "Ġfree": 2840,
      "ief": 2841,
      "Ġlow": 2842,
      "ification": 2843,
      "ify": 2844,
      "Ġenth": 2845,
      "ĠBal": 2846,
      "ĠAnd": 2847,
      "Ġmob": 2848,
      "ds": 2849,
      "Ġemerging": 2850,
      "Ġdesired": 2851,
      "ĠRep": 2852,
      "ulner": 2853,
      "ng": 2854,
      "ressing": 2855,
      "Ġethical": 2856,
      "auty": 2857,
      "Ġfinding": 2858,
      "eration": 2859,
      "pecially": 2860,
      "tis": 2861,
      "ude": 2862,
      "Ġcann": 2863,
      "Ġintegration": 2864,
      "astly": 2865,
      "Ġlocation": 2866,
      "Ġregulations": 2867,
      "Ġpurch": 2868,
      "Ġdevelopers": 2869,
      "Ġliving": 2870,
      "ĠEducation": 2871,
      "itness": 2872,
      "ellow": 2873,
      "ables": 2874,
      "Ġindic": 2875,
      "ĠIntegr": 2876,
      "odies": 2877,
      "Ġnarratives": 2878,
      "inations": 2879,
      "Ġvi": 2880,
      "Ġadvent": 2881,
      "ĠRegular": 2882,
      "Ġcolle": 2883,
      "bility": 2884,
      "Ġanaly": 2885,
      "Ġfrequ": 2886,
      "ĠPractical": 2887,
      "idents": 2888,
      "Ġinteractions": 2889,
      "Ġpack": 2890,
      "akers": 2891,
      "Ġsociety": 2892,
      "Ġenthusi": 2893,
      "ĠGo": 2894,
      "aun": 2895,
      "ĠSk": 2896,
      "Ġnavigating": 2897,
      "Ġespecially": 2898,
      "Ġcareer": 2899,
      "ĠTheir": 2900,
      "Ġheart": 2901,
      "Ġadvancements": 2902,
      "ĠRef": 2903,
      "ĠProg": 2904,
      "Ġlarge": 2905,
      "Ġresulting": 2906,
      "volution": 2907,
      "pping": 2908,
      "Ġhard": 2909,
      "Ġtasks": 2910,
      "Be": 2911,
      "omething": 2912,
      "Ġz": 2913,
      "Ġcell": 2914,
      "land": 2915,
      "pected": 2916,
      "ypes": 2917,
      "ommod": 2918,
      "Ġmaintenance": 2919,
      "telling": 2920,
      "Ġaccommod": 2921,
      "ule": 2922,
      "ample": 2923,
      "Ġcompetitive": 2924,
      "Ġinvestment": 2925,
      "iles": 2926,
      "Ġevolving": 2927,
      "ĠPerform": 2928,
      "Ġreve": 2929,
      "Ġpatients": 2930,
      "Ġhighlights": 2931,
      "Ġobjectives": 2932,
      "eling": 2933,
      "Ġlog": 2934,
      "ĠExploring": 2935,
      "``": 2936,
      "Ġplans": 2937,
      "Ġsuper": 2938,
      "Ġinher": 2939,
      "compass": 2940,
      "ĠEvalu": 2941,
      "ĠAccording": 2942,
      "Ġthereby": 2943,
      "Ġloss": 2944,
      "acies": 2945,
      "Ġprioritiz": 2946,
      "ĠTechniques": 2947,
      "Ġspiritual": 2948,
      "Ġresource": 2949,
      "Ġmis": 2950,
      "Ġenhanced": 2951,
      "Ġinvestig": 2952,
      "bs": 2953,
      "Ġimproving": 2954,
      "ah": 2955,
      "Ġmotiv": 2956,
      "Ġartistic": 2957,
      "Ġrapid": 2958,
      "Ġboundaries": 2959,
      "Ġsomething": 2960,
      "Ġreduced": 2961,
      "ump": 2962,
      "aith": 2963,
      "put": 2964,
      "Ġwere": 2965,
      "Ġvisit": 2966,
      "Ġreduce": 2967,
      "Ġopportunity": 2968,
      "Ġcontext": 2969,
      "Ġ6": 2970,
      "Ġthreat": 2971,
      "itect": 2972,
      "man": 2973,
      "uccess": 2974,
      "Ġdon": 2975,
      "Ġdise": 2976,
      "Ġfeature": 2977,
      "Ġair": 2978,
      "etting": 2979,
      "ĠPri": 2980,
      "Ġsales": 2981,
      "Ġintegrating": 2982,
      "Ġdistinct": 2983,
      "Ġwa": 2984,
      "ĠReal": 2985,
      "irm": 2986,
      "Ġisn": 2987,
      "Ġpiece": 2988,
      "head": 2989,
      "work": 2990,
      "Ġhaving": 2991,
      "While": 2992,
      "cing": 2993,
      "Ġfosters": 2994,
      "erve": 2995,
      "Ġbreak": 2996,
      "Ġleadership": 2997,
      "Ġdriving": 2998,
      "ĠTe": 2999,
      "enses": 3000,
      "Ġnetworks": 3001,
      "Ġalongside": 3002,
      "Ġnow": 3003,
      "Ġcele": 3004,
      "Ġdynamic": 3005,
      "Ġanti": 3006,
      "come": 3007,
      "Ġline": 3008,
      "Ġcomprom": 3009,
      "Ġfunctionality": 3010,
      "ĠEncouraging": 3011,
      "ator": 3012,
      "orage": 3013,
      "ouch": 3014,
      "Ġresol": 3015,
      "overy": 3016,
      "ills": 3017,
      "Ġinitial": 3018,
      "ĠIntern": 3019,
      "Ġdur": 3020,
      "ĠTim": 3021,
      "ĠHistorical": 3022,
      "Ġframew": 3023,
      "Ġoil": 3024,
      "Ġexternal": 3025,
      "Ġestablished": 3026,
      "rig": 3027,
      "Ġmanage": 3028,
      "Ġred": 3029,
      "Ġcharacters": 3030,
      "Ġeconomic": 3031,
      "Ġtac": 3032,
      "Ġvulner": 3033,
      "Ġ200": 3034,
      "alls": 3035,
      "Ġconsumer": 3036,
      "Ġgames": 3037,
      "itation": 3038,
      "ĠLe": 3039,
      "uly": 3040,
      "Ġren": 3041,
      "Ġactions": 3042,
      "Ġreson": 3043,
      "iven": 3044,
      "Ġdialogue": 3045,
      "Ġpossess": 3046,
      "Ġmeans": 3047,
      "Ġprocedures": 3048,
      "Ġnu": 3049,
      "Ġtemper": 3050,
      "Ġliter": 3051,
      "tically": 3052,
      "alle": 3053,
      "Ġsl": 3054,
      "Ġparam": 3055,
      "Ġdespite": 3056,
      "ĠChallen": 3057,
      "Ġadvers": 3058,
      "Ġtechnological": 3059,
      "illing": 3060,
      "Ġonto": 3061,
      "Ġunc": 3062,
      "Ġtre": 3063,
      "xim": 3064,
      "Ġinterpre": 3065,
      "Ġexperienced": 3066,
      "structure": 3067,
      "ĠUs": 3068,
      "Ġspaces": 3069,
      "Ġann": 3070,
      "ĠChar": 3071,
      "Ġadvoc": 3072,
      "nel": 3073,
      "Ġmut": 3074,
      "Ġlove": 3075,
      "Ġselecting": 3076,
      "ient": 3077,
      "apes": 3078,
      "Ġcontributes": 3079,
      "Ġpa": 3080,
      "ĠCare": 3081,
      "ensions": 3082,
      "ront": 3083,
      "ĠAdd": 3084,
      "Ġcutting": 3085,
      "Ġmat": 3086,
      "ronic": 3087,
      "Ġlower": 3088,
      "Ġstill": 3089,
      "ged": 3090,
      "Ġinstall": 3091,
      "Ġcreation": 3092,
      "power": 3093,
      "Ġwellbeing": 3094,
      "ervation": 3095,
      "ĠGuid": 3096,
      "life": 3097,
      "Ġanim": 3098,
      "ĠEach": 3099,
      "Ġsets": 3100,
      "Ġgained": 3101,
      "Ġspe": 3102,
      "Ġdom": 3103,
      "Ġarea": 3104,
      "Ġnutri": 3105,
      "Ġhost": 3106,
      "Ġaudience": 3107,
      "ĠMet": 3108,
      "reen": 3109,
      "Ġvo": 3110,
      "Ġfull": 3111,
      "ĠUl": 3112,
      "Ġappeal": 3113,
      "Ġunderlying": 3114,
      "ĠApplications": 3115,
      "Ġexcell": 3116,
      "Ġgovernment": 3117,
      "ĠCan": 3118,
      "ĠIs": 3119,
      "Ġmatch": 3120,
      "Ġvary": 3121,
      "though": 3122,
      "Ġattrac": 3123,
      "Ġinsp": 3124,
      "ply": 3125,
      "Ġport": 3126,
      "Ġmix": 3127,
      "oming": 3128,
      "Ġperfect": 3129,
      "Ġchallenge": 3130,
      "ĠYou": 3131,
      "rug": 3132,
      "Ġexamination": 3133,
      "Ġsustainability": 3134,
      "iction": 3135,
      "Ġstyles": 3136,
      "atively": 3137,
      "ĠInves": 3138,
      "resh": 3139,
      "Ġrout": 3140,
      "Ġhandling": 3141,
      "Ġgroup": 3142,
      "Ġdesigns": 3143,
      "Ġsingle": 3144,
      "Ġencourages": 3145,
      "Ġfacilitate": 3146,
      "ilarly": 3147,
      "ĠAnalyz": 3148,
      "Ġday": 3149,
      "coming": 3150,
      "Ġencompass": 3151,
      "riers": 3152,
      "ĠPres": 3153,
      "onom": 3154,
      "Understanding": 3155,
      "Ġface": 3156,
      "Ġefficient": 3157,
      "ament": 3158,
      "Ġproviders": 3159,
      "Ġalways": 3160,
      "ingly": 3161,
      "Ġchildren": 3162,
      "ls": 3163,
      "Ġperspectives": 3164,
      "Ġsense": 3165,
      "ĠConn": 3166,
      "Ġlik": 3167,
      "Ġtype": 3168,
      "ified": 3169,
      "Ġpieces": 3170,
      "Ġrealm": 3171,
      "Ġstyle": 3172,
      "Firstly": 3173,
      "eral": 3174,
      "ĠSuccess": 3175,
      "Ġcooking": 3176,
      "Ġbeauty": 3177,
      "Ġtransportation": 3178,
      "Ġregional": 3179,
      "ĠLeg": 3180,
      "Ġscenarios": 3181,
      "esty": 3182,
      "Ġbegin": 3183,
      "Ġlessons": 3184,
      "Ġpolitics": 3185,
      "iversity": 3186,
      "Ġabilities": 3187,
      "Ġsus": 3188,
      "Ġexch": 3189,
      "eless": 3190,
      "Ġintroduc": 3191,
      "elligence": 3192,
      "Ġturn": 3193,
      "Ġexposure": 3194,
      "Ġentire": 3195,
      "ultane": 3196,
      "Ġsched": 3197,
      "turing": 3198,
      "ressive": 3199,
      "Ġmarkets": 3200,
      "ĠProt": 3201,
      "ĠMain": 3202,
      "Ġsituations": 3203,
      "Ġdiscussions": 3204,
      "Ġacad": 3205,
      "ĠĠĠĠĠĠĠĠ": 3206,
      "Ġrepor": 3207,
      "Ġparties": 3208,
      "ajor": 3209,
      "ĠAccess": 3210,
      "oyal": 3211,
      "ocal": 3212,
      "Ġcrafts": 3213,
      "Ġaway": 3214,
      "Ġfamiliar": 3215,
      "enefits": 3216,
      "amm": 3217,
      "Before": 3218,
      "Ġnarrative": 3219,
      "Ġwebsite": 3220,
      "Ġfail": 3221,
      "acity": 3222,
      "Ġnovel": 3223,
      "apter": 3224,
      "rastructure": 3225,
      "Ġadher": 3226,
      "ished": 3227,
      "ĠConsiderations": 3228,
      "Ġsugges": 3229,
      "ĠCustom": 3230,
      "Ġhon": 3231,
      "Moreover": 3232,
      "Ġwar": 3233,
      "Ġtruly": 3234,
      "agnos": 3235,
      "ooks": 3236,
      "sequently": 3237,
      "oud": 3238,
      "Ġcompet": 3239,
      "eth": 3240,
      "Ġstrugg": 3241,
      "ĠProv": 3242,
      "Ġflexibility": 3243,
      "Ġempathy": 3244,
      "otes": 3245,
      "icians": 3246,
      "fford": 3247,
      "Ġversati": 3248,
      "ĠSocial": 3249,
      "riendly": 3250,
      "onic": 3251,
      "gra": 3252,
      "oad": 3253,
      "Ġsect": 3254,
      "Ġtransparency": 3255,
      "Ġvac": 3256,
      "Ġcircum": 3257,
      "Ġanalyze": 3258,
      "Ġexcep": 3259,
      "Ġselection": 3260,
      "ony": 3261,
      "Ġfootball": 3262,
      "ocation": 3263,
      "Ġhowever": 3264,
      "dom": 3265,
      "Ġreturn": 3266,
      "Ġelev": 3267,
      "Ġperforming": 3268,
      "Ġcompati": 3269,
      "Ġtool": 3270,
      "Ġpressure": 3271,
      "Ġjob": 3272,
      "eter": 3273,
      "Ġdiv": 3274,
      "ĠĠĠ": 3275,
      "Ġplayer": 3276,
      "Ġdedicated": 3277,
      "Ġflow": 3278,
      "Ġthri": 3279,
      "Ġrange": 3280,
      "Ġguidance": 3281,
      "val": 3282,
      "issions": 3283,
      "Ġnecessit": 3284,
      "Ġminimize": 3285,
      "chain": 3286,
      "Ġprep": 3287,
      "Ġmonitoring": 3288,
      "Ġnur": 3289,
      "Ġprimarily": 3290,
      "Ġparts": 3291,
      "Ġvirtual": 3292,
      "Have": 3293,
      "Ġsupporting": 3294,
      "taining": 3295,
      "Ġdetail": 3296,
      "Ġbud": 3297,
      "piration": 3298,
      "ĠFl": 3299,
      "Ġsocietal": 3300,
      "ĠEstablish": 3301,
      "ank": 3302,
      "equ": 3303,
      "Ġminimizing": 3304,
      "Ġunders": 3305,
      "Ġcrypt": 3306,
      "ĠWhether": 3307,
      "Ġpractical": 3308,
      "venue": 3309,
      "Ġblock": 3310,
      "essions": 3311,
      "ĠDiscuss": 3312,
      "Ġtaking": 3313,
      "med": 3314,
      "Ġconsidering": 3315,
      "orth": 3316,
      "lier": 3317,
      "aced": 3318,
      "iding": 3319,
      "Ġopp": 3320,
      "Ġsmooth": 3321,
      "Ġpartnerships": 3322,
      "use": 3323,
      "fulness": 3324,
      "Ġreaders": 3325,
      "eline": 3326,
      "ird": 3327,
      "ring": 3328,
      "Im": 3329,
      "riter": 3330,
      "ects": 3331,
      "Ġfar": 3332,
      "Ġdim": 3333,
      "Ġ$": 3334,
      "formation": 3335,
      "Ġencounter": 3336,
      "Ġmitig": 3337,
      "illed": 3338,
      "Ġuntil": 3339,
      "Ġclin": 3340,
      "iors": 3341,
      "Ġfavor": 3342,
      "Ġdamage": 3343,
      "ups": 3344,
      "Ġinstruc": 3345,
      "Ġintricacies": 3346,
      "Ġ`": 3347,
      "Ġestate": 3348,
      "Ġitself": 3349,
      "Ġdemands": 3350,
      "ĠProf": 3351,
      "ton": 3352,
      "rist": 3353,
      "Ġthinking": 3354,
      "Ġadminist": 3355,
      "ĠDel": 3356,
      "Ġbenefit": 3357,
      "Ġstability": 3358,
      "crib": 3359,
      "Ġutilizing": 3360,
      "Ġsimple": 3361,
      "Ġvibr": 3362,
      "Ġconcer": 3363,
      "ĠAg": 3364,
      "ultaneously": 3365,
      "ror": 3366,
      "ĠChallenges": 3367,
      "uries": 3368,
      "Ġexamples": 3369,
      "ulate": 3370,
      "icient": 3371,
      "urop": 3372,
      "ĠAssess": 3373,
      "ĠSol": 3374,
      "sequences": 3375,
      ",\"": 3376,
      "Ġforward": 3377,
      "ause": 3378,
      "Ġregulatory": 3379,
      "ĠBenefits": 3380,
      "Ġinherent": 3381,
      "Ġcomputer": 3382,
      "Ġcloser": 3383,
      "Ġwin": 3384,
      "Ġaffecting": 3385,
      "Ġmast": 3386,
      "oti": 3387,
      "Ġpreserving": 3388,
      "Ġtest": 3389,
      "ffic": 3390,
      "ĠOb": 3391,
      "Ġenhances": 3392,
      "ĠFuture": 3393,
      "ĠWhat": 3394,
      ".\"": 3395,
      "ĠProcess": 3396,
      "Ġlooking": 3397,
      "Ġgather": 3398,
      "Ġdistribution": 3399,
      "ĠRespon": 3400,
      "ifying": 3401,
      "Another": 3402,
      "Ġsensitive": 3403,
      "Ġinfrastructure": 3404,
      "Ġspecialized": 3405,
      "Ġcampaigns": 3406,
      "ĠTravel": 3407,
      "ĠTherefore": 3408,
      "Ġaccessibility": 3409,
      "Ġemotions": 3410,
      "stances": 3411,
      "Ġcases": 3412,
      "Ġworth": 3413,
      "ĠGl": 3414,
      "Ġrein": 3415,
      "Ġsafe": 3416,
      "Ġinvesting": 3417,
      "ĠDec": 3418,
      "Ġfunctions": 3419,
      "Ġhighlighting": 3420,
      "Ġcompelling": 3421,
      "Ġcer": 3422,
      "Ġapart": 3423,
      "ĠSpec": 3424,
      "Ġexpress": 3425,
      "Ġseemingly": 3426,
      "Ġexciting": 3427,
      "Ġtoward": 3428,
      "ĠCho": 3429,
      "Ġitems": 3430,
      "Ġguide": 3431,
      "Ġcris": 3432,
      "Ġcateg": 3433,
      "Ġindustries": 3434,
      "Ġbelief": 3435,
      "tition": 3436,
      "Ġbase": 3437,
      "ĠCommon": 3438,
      "lation": 3439,
      "Ġproblem": 3440,
      "ĠInc": 3441,
      "owers": 3442,
      "Ġartic": 3443,
      "Ġfoundation": 3444,
      "Ġsymb": 3445,
      "ĠBack": 3446,
      "ĠWorld": 3447,
      "Ġstat": 3448,
      "Ġcand": 3449,
      "Ġfu": 3450,
      "Ġharness": 3451,
      "Ġshape": 3452,
      "Ġhealthy": 3453,
      "Ġtherapy": 3454,
      "onds": 3455,
      "Ġclim": 3456,
      "oving": 3457,
      "Ġarchitect": 3458,
      "Ġcat": 3459,
      "ocurr": 3460,
      "ĠPublic": 3461,
      "etary": 3462,
      "Ġlines": 3463,
      "Ġtax": 3464,
      "aming": 3465,
      "Ġrelig": 3466,
      "ĠRemember": 3467,
      "Ġmanufactur": 3468,
      "Ġstorytelling": 3469,
      "Ġey": 3470,
      "ĠInternational": 3471,
      "Ġfaith": 3472,
      "Ġsuff": 3473,
      "bo": 3474,
      "Ġaccom": 3475,
      "Ġindepend": 3476,
      "ably": 3477,
      "ĠPractices": 3478,
      "Ġlens": 3479,
      "Ġfinal": 3480,
      "rin": 3481,
      "ĠNavigating": 3482,
      "Ġdepending": 3483,
      "Ġimpacts": 3484,
      "ster": 3485,
      "Ġsav": 3486,
      "anning": 3487,
      "Ġcollective": 3488,
      "Ġcelebr": 3489,
      "Ġrepresents": 3490,
      "bracing": 3491,
      "ifications": 3492,
      "Ġcircumstances": 3493,
      "Ġaims": 3494,
      "Ġinvolve": 3495,
      "ools": 3496,
      "ured": 3497,
      "ĠSimilarly": 3498,
      "Ġaccordingly": 3499,
      "ĠCent": 3500,
      "VII": 3501,
      "ids": 3502,
      "Ġ202": 3503,
      "ĠCle": 3504,
      "Ġundersc": 3505,
      "ĠRed": 3506,
      "Ġtesting": 3507,
      "Ġencourage": 3508,
      "iosity": 3509,
      "Ġintegrity": 3510,
      "ĠOrgan": 3511,
      "Ġstaff": 3512,
      "Ġstorage": 3513,
      "ĠVis": 3514,
      "Ġcop": 3515,
      "Ġfellow": 3516,
      "auti": 3517,
      "Ġmill": 3518,
      "ipped": 3519,
      "Ġneeded": 3520,
      "Ġbur": 3521,
      "Ġdiversity": 3522,
      "Ġpresence": 3523,
      "Ġidentifying": 3524,
      "Ġdiss": 3525,
      "Ġteach": 3526,
      "Ġapply": 3527,
      "orders": 3528,
      "Ġprefer": 3529,
      "ributions": 3530,
      "Ġtalent": 3531,
      "Ġoriginal": 3532,
      "Ġacknow": 3533,
      "orking": 3534,
      "ĠLever": 3535,
      "Ġenthusiasts": 3536,
      "Ġlimitations": 3537,
      "Ġinternal": 3538,
      "idden": 3539,
      "ades": 3540,
      "ĠSm": 3541,
      "Ġowners": 3542,
      "Ġreflec": 3543,
      "Ġdemonstrate": 3544,
      "Ġsil": 3545,
      "Ġstage": 3546,
      "Ġconsideration": 3547,
      "Ġcompliance": 3548,
      "ened": 3549,
      "Ġexpression": 3550,
      "ised": 3551,
      "ĠIdentifying": 3552,
      "Ġafford": 3553,
      "Ġdiving": 3554,
      "Ġdepth": 3555,
      "Ġhim": 3556,
      "Ġextra": 3557,
      "Ġlimited": 3558,
      "Ġsize": 3559,
      "ĠUltimately": 3560,
      "riends": 3561,
      "Ġencouraging": 3562,
      "uting": 3563,
      "Ġhor": 3564,
      "Ġyoung": 3565,
      "ĠTechnology": 3566,
      "Ġdevelopments": 3567,
      "Ġprocessing": 3568,
      "Ġaccurate": 3569,
      "lines": 3570,
      "range": 3571,
      "Ġpurpose": 3572,
      "Ġinsurance": 3573,
      "ceed": 3574,
      "mit": 3575,
      "ina": 3576,
      "Ġprevious": 3577,
      "Ġwatch": 3578,
      "Ġcharacteristics": 3579,
      "ĠSaf": 3580,
      "Ġcomplexity": 3581,
      "Ġcounter": 3582,
      "ĠImplementing": 3583,
      "Ġalternatives": 3584,
      "ĠRelations": 3585,
      "Ġsimply": 3586,
      "ĠOnline": 3587,
      "Ġviol": 3588,
      "amental": 3589,
      "Ġsubstanti": 3590,
      "urope": 3591,
      "Ġnor": 3592,
      "race": 3593,
      "mission": 3594,
      "Ġtrue": 3595,
      "Ġearlier": 3596,
      "Ġlandscapes": 3597,
      "Ġeffort": 3598,
      "Ġloyal": 3599,
      "Ġachieving": 3600,
      "icine": 3601,
      "icit": 3602,
      "Ã©": 3603,
      "ĠConsequently": 3604,
      "appy": 3605,
      "Ġimplementation": 3606,
      "Ġouts": 3607,
      "Ġsports": 3608,
      "Ġactivity": 3609,
      "Ġgrowing": 3610,
      "Ġnetwork": 3611,
      "like": 3612,
      "Ġterm": 3613,
      "Ġpoint": 3614,
      "oes": 3615,
      "Ġcorre": 3616,
      "ĠX": 3617,
      "Ġhab": 3618,
      "he": 3619,
      "Ġresponsibility": 3620,
      "Ġmovement": 3621,
      "Ġimmedi": 3622,
      "Ġculinary": 3623,
      "Ġwarm": 3624,
      "Ġpropos": 3625,
      "Ġsepar": 3626,
      "Ġexhib": 3627,
      "ĠTips": 3628,
      "tivating": 3629,
      "Ġwond": 3630,
      "ĠArts": 3631,
      "Ġabs": 3632,
      "Ġtechnical": 3633,
      "Ġhot": 3634,
      "Ġexist": 3635,
      "Ġseek": 3636,
      "Ġlaws": 3637,
      "que": 3638,
      "Ġours": 3639,
      "ĠExp": 3640,
      "pe": 3641,
      "Ġmajor": 3642,
      "ison": 3643,
      "Ġconsumption": 3644,
      "Ġpositi": 3645,
      "Ġsessions": 3646,
      "PI": 3647,
      "Ġoffered": 3648,
      "Ġreflect": 3649,
      "Ġweak": 3650,
      "Ġwomen": 3651,
      "oved": 3652,
      "Ġadaptability": 3653,
      "Ġcuriosity": 3654,
      "Ġconsistency": 3655,
      "Example": 3656,
      "Ġconsequences": 3657,
      "Ġconfidence": 3658,
      "ĠSign": 3659,
      "Ġeveryone": 3660,
      "gor": 3661,
      "Ġvibrant": 3662,
      "Ġchem": 3663,
      "thing": 3664,
      "Ġaspiring": 3665,
      "Ġincrease": 3666,
      "How": 3667,
      "icing": 3668,
      "Ġexceptional": 3669,
      "Ġupdates": 3670,
      "Ġscience": 3671,
      "une": 3672,
      "Ġwebsites": 3673,
      "Ġexcess": 3674,
      "Ġweight": 3675,
      "Ġdelivering": 3676,
      "Ġofferings": 3677,
      "Ġtouch": 3678,
      "ruit": 3679,
      "ĠChrist": 3680,
      "Ġissue": 3681,
      "ĠEnh": 3682,
      "rast": 3683,
      "Ġlux": 3684,
      "Ġ7": 3685,
      "Ġideal": 3686,
      "ĠEns": 3687,
      "ĠEurope": 3688,
      "Ġemphasizing": 3689,
      "Ġclaim": 3690,
      "Ġnotable": 3691,
      "Ġsimultaneously": 3692,
      "Ġtransformation": 3693,
      "ĠMar": 3694,
      "Ġconstit": 3695,
      "Ġfundamental": 3696,
      "Ġoverl": 3697,
      "Ġprivate": 3698,
      "Ġinterpret": 3699,
      "Ġprem": 3700,
      "Ġanx": 3701,
      "urch": 3702,
      "Ġgenu": 3703,
      "Ġpresents": 3704,
      "cious": 3705,
      "aturing": 3706,
      "uff": 3707,
      "igur": 3708,
      "Ġcarefully": 3709,
      "Ġfully": 3710,
      "Ġparticipants": 3711,
      "ĠHis": 3712,
      "Ġdifferences": 3713,
      "ĠUsing": 3714,
      "Ġenric": 3715,
      "Ġfamil": 3716,
      "Ġrecommend": 3717,
      "Ġintelligence": 3718,
      "ĠAll": 3719,
      "ned": 3720,
      "Ġquickly": 3721,
      "Ġeffectiveness": 3722,
      "Ġdelivery": 3723,
      "Ġprotoc": 3724,
      "Ġunivers": 3725,
      "Ġfact": 3726,
      "icious": 3727,
      "Ad": 3728,
      "iety": 3729,
      "At": 3730,
      "Ġmutual": 3731,
      "idential": 3732,
      "Ġstandard": 3733,
      "ains": 3734,
      "Ġchanging": 3735,
      "Ġbarriers": 3736,
      "ĠProper": 3737,
      "orship": 3738,
      "cent": 3739,
      "Ġhighlight": 3740,
      "acing": 3741,
      "egu": 3742,
      "edge": 3743,
      "Ġlive": 3744,
      "Ġourselves": 3745,
      "ĠAI": 3746,
      "ancer": 3747,
      "Ġinfluencing": 3748,
      "Ġcapacity": 3749,
      "Ġstaying": 3750,
      "icy": 3751,
      "otal": 3752,
      "EO": 3753,
      "ok": 3754,
      "gorith": 3755,
      "ĠAppro": 3756,
      "ĠDeveloping": 3757,
      "Ġmoments": 3758,
      "Ġonce": 3759,
      "times": 3760,
      "pan": 3761,
      "cription": 3762,
      "Ġstudent": 3763,
      "Ġwriting": 3764,
      "ĠBalancing": 3765,
      "ither": 3766,
      "ĠLearning": 3767,
      "Ġmodel": 3768,
      "Ġdoing": 3769,
      "ception": 3770,
      "ek": 3771,
      "Ġwaste": 3772,
      "ĠEncourage": 3773,
      "poses": 3774,
      "assion": 3775,
      "ĠEth": 3776,
      "ĠContro": 3777,
      "Ġcandid": 3778,
      "Ġschool": 3779,
      "Ġmonth": 3780,
      "Ġbudget": 3781,
      "Ġinspiration": 3782,
      "ii": 3783,
      "oral": 3784,
      "For": 3785,
      "ĠInstead": 3786,
      "Ġprogramming": 3787,
      "ĠFam": 3788,
      "ĠPoli": 3789,
      "Ġthreats": 3790,
      "Ġcam": 3791,
      "Ġcapital": 3792,
      "faces": 3793,
      "arant": 3794,
      "rag": 3795,
      "urg": 3796,
      "Ġdiagnos": 3797,
      "Ġappl": 3798,
      "uck": 3799,
      "iring": 3800,
      "otive": 3801,
      "Ġfear": 3802,
      "Ġarg": 3803,
      "ĠImpro": 3804,
      "Ġtactics": 3805,
      "ume": 3806,
      "Through": 3807,
      "orial": 3808,
      "Ġranging": 3809,
      "Ġpossibilities": 3810,
      "titude": 3811,
      "On": 3812,
      "eep": 3813,
      "Ġdrug": 3814,
      "ĠApplying": 3815,
      "Ġideas": 3816,
      "hy": 3817,
      "ĠCommunity": 3818,
      "Ġintrig": 3819,
      "Ġyield": 3820,
      "Ġgenerations": 3821,
      "Ch": 3822,
      "Ġfriends": 3823,
      "ĠCB": 3824,
      "Ġclient": 3825,
      "ĠUtilizing": 3826,
      "ĠCompar": 3827,
      "Ġsole": 3828,
      "ardless": 3829,
      "backs": 3830,
      "Ġblog": 3831,
      "ler": 3832,
      "Ġprote": 3833,
      "Ġemployed": 3834,
      "ĠPlay": 3835,
      "ĠUse": 3836,
      "Ġproductivity": 3837,
      "ercial": 3838,
      "Ġresponses": 3839,
      "Ġdat": 3840,
      "Ġchoosing": 3841,
      "Ġdiscipl": 3842,
      "Ġpurposes": 3843,
      "ĠTw": 3844,
      "Ġcraft": 3845,
      "Ġfair": 3846,
      "Ġfilm": 3847,
      "ĠQu": 3848,
      "Ġstart": 3849,
      "ĠGuidelines": 3850,
      "Ġadding": 3851,
      "ift": 3852,
      "Ġmere": 3853,
      "astic": 3854,
      "Ġland": 3855,
      "oints": 3856,
      "Ġcontinued": 3857,
      "Ġtrack": 3858,
      "ĠDi": 3859,
      "Ġhighly": 3860,
      "Ġamb": 3861,
      "Ġrecognizing": 3862,
      "Ġcompatibility": 3863,
      "uality": 3864,
      "Ġget": 3865,
      "Ġunf": 3866,
      "ung": 3867,
      "inder": 3868,
      "ĠModern": 3869,
      "Ġprotect": 3870,
      "Ġapplying": 3871,
      "Ġconstant": 3872,
      "Ġflavors": 3873,
      "Ġheat": 3874,
      "Lastly": 3875,
      "Ġ|": 3876,
      "Ġ8": 3877,
      "Ġexcl": 3878,
      "Ġsurface": 3879,
      "Ġder": 3880,
      "Ġsource": 3881,
      "Ġresistance": 3882,
      "Ġcentral": 3883,
      "Ġfacilities": 3884,
      "So": 3885,
      "iber": 3886,
      "Ġvast": 3887,
      "Ġrestric": 3888,
      "Ġemployees": 3889,
      "ival": 3890,
      "ohn": 3891,
      "ognitive": 3892,
      "tr": 3893,
      "Ġoperating": 3894,
      "Ġmetrics": 3895,
      "Ġdelves": 3896,
      "riteria": 3897,
      "ustice": 3898,
      "Ġfour": 3899,
      "ĠFe": 3900,
      "forcement": 3901,
      "emp": 3902,
      "comm": 3903,
      "prene": 3904,
      "ulating": 3905,
      "ulture": 3906,
      "ĠNot": 3907,
      "usiv": 3908,
      "ĠTypes": 3909,
      "ĠSystems": 3910,
      "Ġpiv": 3911,
      "Ġcultures": 3912,
      "Ġqualities": 3913,
      "Ġagree": 3914,
      "ĠStudents": 3915,
      "Ġleveraging": 3916,
      "Ġsafegu": 3917,
      "ĠMo": 3918,
      "way": 3919,
      "Ġleads": 3920,
      "ĠPers": 3921,
      "reprene": 3922,
      "Ġmil": 3923,
      "Ġcomponent": 3924,
      "sts": 3925,
      "Ġcrim": 3926,
      "ĠCO": 3927,
      "Ġentertain": 3928,
      "ĠAut": 3929,
      "Ġparamount": 3930,
      "Ġstrengths": 3931,
      "000": 3932,
      "Ġconversations": 3933,
      "ĠDigital": 3934,
      "Ġdemonstrates": 3935,
      "Ġspeed": 3936,
      "neys": 3937,
      "Ġbehaviors": 3938,
      "Ġthus": 3939,
      "Ġlab": 3940,
      "Ġflavor": 3941,
      "Ġclosely": 3942,
      "reg": 3943,
      "iciency": 3944,
      "Ġsubstantial": 3945,
      "Ġeasy": 3946,
      "ians": 3947,
      "Ġexercise": 3948,
      "ĠProm": 3949,
      "Ġpo": 3950,
      "nesses": 3951,
      "Ġconventional": 3952,
      "Ġmusical": 3953,
      "Ġfew": 3954,
      "ĠAf": 3955,
      "ĠUnited": 3956,
      "ĠLook": 3957,
      "Ġjud": 3958,
      "ĠContext": 3959,
      "Ġdiscussing": 3960,
      "Ġdedication": 3961,
      "urban": 3962,
      "Ġdisru": 3963,
      "Ġradi": 3964,
      "Ġtraffic": 3965,
      "Ġstatus": 3966,
      "//": 3967,
      "arity": 3968,
      "ogle": 3969,
      "Ġanalytics": 3970,
      "tt": 3971,
      "Ġsolely": 3972,
      "Ġlarger": 3973,
      "ĠProduc": 3974,
      "gest": 3975,
      "Ġperspective": 3976,
      "Ġwal": 3977,
      "ventions": 3978,
      "Ġinters": 3979,
      "Ġside": 3980,
      "Ġalgorith": 3981,
      "Ġbrow": 3982,
      "ĠOut": 3983,
      "Ġciv": 3984,
      "Ġmass": 3985,
      "Ġdemoc": 3986,
      "ĠEmbracing": 3987,
      "ĠMeas": 3988,
      "ĠOpportun": 3989,
      "Ġbreath": 3990,
      "Ġcrafting": 3991,
      "Ġfig": 3992,
      "Ġment": 3993,
      "Ġreliable": 3994,
      "Ġdrive": 3995,
      "ĠCar": 3996,
      "bon": 3997,
      "apeu": 3998,
      "des": 3999,
      "bre": 4000,
      "unning": 4001,
      "Ġrevenue": 4002,
      "10": 4003,
      "ĠAb": 4004,
      "rief": 4005,
      "ĠDuring": 4006,
      "ĠImplications": 4007,
      "ĠCultural": 4008,
      "Ġofficial": 4009,
      "ĠDem": 4010,
      "Ġfeaturing": 4011,
      "Ġpeace": 4012,
      "Ġcard": 4013,
      "entific": 4014,
      "ĠDire": 4015,
      "order": 4016,
      "Ġperiods": 4017,
      "ĠThus": 4018,
      "Ġpositively": 4019,
      "Ġnews": 4020,
      "osen": 4021,
      "Ġcredit": 4022,
      "ams": 4023,
      "Ġahead": 4024,
      "ales": 4025,
      "mentary": 4026,
      "ĠMusic": 4027,
      "ticul": 4028,
      "Ġgiven": 4029,
      "Ġprotocols": 4030,
      "Ġtraditions": 4031,
      "Ġunex": 4032,
      "ager": 4033,
      "antage": 4034,
      "Ġmobile": 4035,
      "Ġinteraction": 4036,
      "Ġevaluating": 4037,
      "Ġcompromising": 4038,
      "Ġrecords": 4039,
      "Ġsomeone": 4040,
      "we": 4041,
      "ĠServices": 4042,
      "vis": 4043,
      "Ġprioritize": 4044,
      "Ġdiffic": 4045,
      "Ġwrit": 4046,
      "Des": 4047,
      "friendly": 4048,
      "ĠVal": 4049,
      "Ġinstru": 4050,
      "ĠAdap": 4051,
      "Ġrecognition": 4052,
      "ires": 4053,
      "Ġten": 4054,
      "ĠMin": 4055,
      "Ġstates": 4056,
      "Ġwis": 4057,
      "Ġmetal": 4058,
      "Ġdisplay": 4059,
      "Ġdrawing": 4060,
      "Ġgreat": 4061,
      "Ġcompetition": 4062,
      "Ġsumm": 4063,
      "Ġdesigning": 4064,
      "ister": 4065,
      "Ġattribut": 4066,
      "Ġprompt": 4067,
      "Ġadds": 4068,
      "Ġbeauti": 4069,
      "Ġfocused": 4070,
      "raints": 4071,
      "Ġfresh": 4072,
      "Ġrew": 4073,
      "Ġefficiently": 4074,
      "lity": 4075,
      "Ġtransfer": 4076,
      "Ġgoal": 4077,
      "ĠManufact": 4078,
      "Ġcontact": 4079,
      "oke": 4080,
      "usivity": 4081,
      "Ġweather": 4082,
      "ĠConf": 4083,
      "Ġcontinues": 4084,
      "Ġsympt": 4085,
      "Ġvision": 4086,
      "ĠCal": 4087,
      "Ġseries": 4088,
      "ott": 4089,
      "Ġpet": 4090,
      "Ġloyalty": 4091,
      "Ġvarying": 4092,
      "Ġcoun": 4093,
      "ticing": 4094,
      "Ġcontributions": 4095
    },
    "merges": [
      [
        "i",
        "n"
      ],
      [
        "Ġ",
        "a"
      ],
      [
        "o",
        "n"
      ],
      [
        "Ġ",
        "t"
      ],
      [
        "e",
        "s"
      ],
      [
        "e",
        "r"
      ],
      [
        "t",
        "i"
      ],
      [
        "e",
        "n"
      ],
      [
        "in",
        "g"
      ],
      [
        "Ġ",
        "c"
      ],
      [
        "o",
        "r"
      ],
      [
        "a",
        "l"
      ],
      [
        "n",
        "d"
      ],
      [
        "Ġ",
        "s"
      ],
      [
        "Ġt",
        "h"
      ],
      [
        "r",
        "e"
      ],
      [
        "Ġ",
        "p"
      ],
      [
        "ti",
        "on"
      ],
      [
        "Ġa",
        "nd"
      ],
      [
        "i",
        "t"
      ],
      [
        "Ġ",
        "o"
      ],
      [
        "a",
        "t"
      ],
      [
        "a",
        "n"
      ],
      [
        "Ġ",
        "in"
      ],
      [
        "r",
        "o"
      ],
      [
        "a",
        "r"
      ],
      [
        "Ġ",
        "f"
      ],
      [
        "e",
        "d"
      ],
      [
        "i",
        "s"
      ],
      [
        "Ġth",
        "e"
      ],
      [
        "Ġ",
        "d"
      ],
      [
        "l",
        "e"
      ],
      [
        "Ġ",
        "m"
      ],
      [
        "i",
        "c"
      ],
      [
        "en",
        "t"
      ],
      [
        "Ġ",
        "w"
      ],
      [
        "Ġ",
        "b"
      ],
      [
        "o",
        "u"
      ],
      [
        "Ġ",
        "e"
      ],
      [
        "Ġo",
        "f"
      ],
      [
        "Ġt",
        "o"
      ],
      [
        "a",
        "tion"
      ],
      [
        "s",
        "t"
      ],
      [
        "a",
        "c"
      ],
      [
        "e",
        "c"
      ],
      [
        "o",
        "m"
      ],
      [
        "e",
        "l"
      ],
      [
        "Ġ",
        "h"
      ],
      [
        "Ġ",
        "re"
      ],
      [
        "u",
        "r"
      ],
      [
        "i",
        "l"
      ],
      [
        "er",
        "s"
      ],
      [
        "e",
        "t"
      ],
      [
        "es",
        "s"
      ],
      [
        "o",
        "l"
      ],
      [
        "i",
        "g"
      ],
      [
        "Ġ",
        "l"
      ],
      [
        "i",
        "d"
      ],
      [
        "c",
        "e"
      ],
      [
        "v",
        "e"
      ],
      [
        "a",
        "s"
      ],
      [
        "l",
        "y"
      ],
      [
        "u",
        "s"
      ],
      [
        "m",
        "ent"
      ],
      [
        "Ġ",
        "C"
      ],
      [
        "Ġc",
        "on"
      ],
      [
        "i",
        "m"
      ],
      [
        "u",
        "l"
      ],
      [
        "t",
        "h"
      ],
      [
        "Ġp",
        "ro"
      ],
      [
        "Ġ",
        "T"
      ],
      [
        "r",
        "a"
      ],
      [
        "Ġs",
        "t"
      ],
      [
        "u",
        "c"
      ],
      [
        "Ġ",
        "A"
      ],
      [
        "Ġ",
        "S"
      ],
      [
        "o",
        "w"
      ],
      [
        "Ġ",
        "g"
      ],
      [
        "Ġe",
        "x"
      ],
      [
        "t",
        "s"
      ],
      [
        "Ġ",
        "n"
      ],
      [
        "Ġf",
        "or"
      ],
      [
        "it",
        "y"
      ],
      [
        "i",
        "r"
      ],
      [
        "u",
        "n"
      ],
      [
        "a",
        "b"
      ],
      [
        "Ġ",
        "r"
      ],
      [
        "v",
        "er"
      ],
      [
        "at",
        "e"
      ],
      [
        "Ġc",
        "om"
      ],
      [
        "Ġ",
        "en"
      ],
      [
        "Ġ",
        "v"
      ],
      [
        "a",
        "m"
      ],
      [
        "a",
        "g"
      ],
      [
        "it",
        "h"
      ],
      [
        "t",
        "er"
      ],
      [
        "ti",
        "c"
      ],
      [
        "p",
        "p"
      ],
      [
        "ou",
        "r"
      ],
      [
        "Ġ",
        "P"
      ],
      [
        "u",
        "t"
      ],
      [
        "q",
        "u"
      ],
      [
        "i",
        "on"
      ],
      [
        "Ġ",
        "on"
      ],
      [
        "r",
        "i"
      ],
      [
        "Ġ",
        "I"
      ],
      [
        "e",
        "m"
      ],
      [
        "Ġw",
        "h"
      ],
      [
        "Ġw",
        "ith"
      ],
      [
        "ation",
        "s"
      ],
      [
        "o",
        "s"
      ],
      [
        "i",
        "f"
      ],
      [
        "a",
        "in"
      ],
      [
        "a",
        "y"
      ],
      [
        "o",
        "c"
      ],
      [
        "Ġa",
        "s"
      ],
      [
        "Ġ",
        "E"
      ],
      [
        "Ġ",
        "y"
      ],
      [
        "p",
        "l"
      ],
      [
        "a",
        "nd"
      ],
      [
        "Ġ",
        "B"
      ],
      [
        "Ġ",
        "M"
      ],
      [
        "i",
        "es"
      ],
      [
        "f",
        "or"
      ],
      [
        "t",
        "ing"
      ],
      [
        "ig",
        "h"
      ],
      [
        "i",
        "z"
      ],
      [
        "Ġ",
        "or"
      ],
      [
        "Ġa",
        "c"
      ],
      [
        "ĠT",
        "h"
      ],
      [
        "Ġ",
        "D"
      ],
      [
        "an",
        "ce"
      ],
      [
        "a",
        "d"
      ],
      [
        "o",
        "d"
      ],
      [
        "i",
        "ti"
      ],
      [
        "Ġa",
        "l"
      ],
      [
        "u",
        "d"
      ],
      [
        "o",
        "t"
      ],
      [
        "'",
        "s"
      ],
      [
        "k",
        "e"
      ],
      [
        "o",
        "p"
      ],
      [
        "Ġc",
        "h"
      ],
      [
        "ro",
        "u"
      ],
      [
        "Ġ",
        "R"
      ],
      [
        "c",
        "h"
      ],
      [
        "Ġin",
        "t"
      ],
      [
        "tion",
        "s"
      ],
      [
        "u",
        "re"
      ],
      [
        "v",
        "el"
      ],
      [
        "Ġ",
        "F"
      ],
      [
        "Ġd",
        "e"
      ],
      [
        "Ġr",
        "es"
      ],
      [
        "u",
        "st"
      ],
      [
        "Ġ",
        "le"
      ],
      [
        "p",
        "er"
      ],
      [
        "Ġa",
        "n"
      ],
      [
        "Ġcom",
        "p"
      ],
      [
        "o",
        "g"
      ],
      [
        "ti",
        "ve"
      ],
      [
        "Ġ",
        "im"
      ],
      [
        "i",
        "v"
      ],
      [
        "at",
        "ing"
      ],
      [
        "Ġa",
        "d"
      ],
      [
        "i",
        "al"
      ],
      [
        "u",
        "m"
      ],
      [
        "Ġ",
        "it"
      ],
      [
        "Ġb",
        "e"
      ],
      [
        "a",
        "p"
      ],
      [
        "Ġ",
        "u"
      ],
      [
        "ou",
        "s"
      ],
      [
        "ig",
        "n"
      ],
      [
        "is",
        "t"
      ],
      [
        "-",
        "-"
      ],
      [
        "ic",
        "al"
      ],
      [
        "d",
        "uc"
      ],
      [
        "en",
        "ti"
      ],
      [
        "g",
        "h"
      ],
      [
        "Ġp",
        "r"
      ],
      [
        "p",
        "ec"
      ],
      [
        "ag",
        "e"
      ],
      [
        "Ġ",
        "("
      ],
      [
        "i",
        "p"
      ],
      [
        "Ġcon",
        "t"
      ],
      [
        "Ġ",
        "H"
      ],
      [
        "il",
        "l"
      ],
      [
        "Ġ",
        "un"
      ],
      [
        "en",
        "c"
      ],
      [
        "Ġ",
        "W"
      ],
      [
        "Ġ",
        "L"
      ],
      [
        "es",
        "e"
      ],
      [
        "Ġin",
        "c"
      ],
      [
        "al",
        "l"
      ],
      [
        "or",
        "t"
      ],
      [
        "ab",
        "le"
      ],
      [
        "in",
        "e"
      ],
      [
        "ar",
        "d"
      ],
      [
        "v",
        "es"
      ],
      [
        "c",
        "ess"
      ],
      [
        "for",
        "m"
      ],
      [
        "an",
        "t"
      ],
      [
        "k",
        "ing"
      ],
      [
        "Ġthe",
        "ir"
      ],
      [
        "a",
        "re"
      ],
      [
        "f",
        "f"
      ],
      [
        "en",
        "ce"
      ],
      [
        "u",
        "al"
      ],
      [
        "Ġ",
        "us"
      ],
      [
        "Ġa",
        "pp"
      ],
      [
        "Ġ",
        "U"
      ],
      [
        "s",
        "e"
      ],
      [
        "en",
        "d"
      ],
      [
        "Ġe",
        "m"
      ],
      [
        "an",
        "s"
      ],
      [
        "Ġs",
        "h"
      ],
      [
        "Ġ",
        "is"
      ],
      [
        "or",
        "e"
      ],
      [
        "Ġt",
        "r"
      ],
      [
        "ent",
        "s"
      ],
      [
        "ac",
        "t"
      ],
      [
        "Ġs",
        "e"
      ],
      [
        "Ġp",
        "l"
      ],
      [
        "ro",
        "m"
      ],
      [
        "ment",
        "s"
      ],
      [
        "g",
        "e"
      ],
      [
        "an",
        "c"
      ],
      [
        "iti",
        "es"
      ],
      [
        "Ġim",
        "p"
      ],
      [
        "e",
        "w"
      ],
      [
        "Ġ",
        "O"
      ],
      [
        "es",
        "t"
      ],
      [
        "Ġst",
        "r"
      ],
      [
        "nd",
        "er"
      ],
      [
        "Ġb",
        "y"
      ],
      [
        "ac",
        "h"
      ],
      [
        "ĠI",
        "n"
      ],
      [
        "Ġc",
        "an"
      ],
      [
        "rou",
        "gh"
      ],
      [
        "Ġth",
        "is"
      ],
      [
        "or",
        "s"
      ],
      [
        "o",
        "st"
      ],
      [
        "Ġy",
        "our"
      ],
      [
        "i",
        "b"
      ],
      [
        "Ġth",
        "at"
      ],
      [
        "ur",
        "ing"
      ],
      [
        "il",
        "ity"
      ],
      [
        "Ġ",
        "G"
      ],
      [
        "f",
        "er"
      ],
      [
        "Ġd",
        "is"
      ],
      [
        "ou",
        "t"
      ],
      [
        "ec",
        "h"
      ],
      [
        "i",
        "le"
      ],
      [
        "Ġw",
        "e"
      ],
      [
        "a",
        "st"
      ],
      [
        "on",
        "g"
      ],
      [
        "Ġcon",
        "s"
      ],
      [
        "e",
        "p"
      ],
      [
        "er",
        "e"
      ],
      [
        "i",
        "tion"
      ],
      [
        "Ġint",
        "o"
      ],
      [
        "l",
        "d"
      ],
      [
        "Ġs",
        "u"
      ],
      [
        "Ġs",
        "uc"
      ],
      [
        "en",
        "s"
      ],
      [
        "at",
        "ed"
      ],
      [
        "th",
        "er"
      ],
      [
        "id",
        "e"
      ],
      [
        "Ġa",
        "t"
      ],
      [
        "a",
        "v"
      ],
      [
        "enti",
        "al"
      ],
      [
        "ar",
        "y"
      ],
      [
        "Ġth",
        "ese"
      ],
      [
        "Ġh",
        "e"
      ],
      [
        "Ġw",
        "or"
      ],
      [
        "Ġcom",
        "m"
      ],
      [
        "u",
        "e"
      ],
      [
        "k",
        "s"
      ],
      [
        "Ġin",
        "d"
      ],
      [
        "Ġf",
        "rom"
      ],
      [
        "Ġin",
        "ter"
      ],
      [
        "le",
        "c"
      ],
      [
        "igh",
        "t"
      ],
      [
        "Ġy",
        "ou"
      ],
      [
        "l",
        "ow"
      ],
      [
        "i",
        "ke"
      ],
      [
        "Ġp",
        "ar"
      ],
      [
        "f",
        "ul"
      ],
      [
        "Ġ",
        "N"
      ],
      [
        "a",
        "ti"
      ],
      [
        "Ġa",
        "r"
      ],
      [
        "ech",
        "n"
      ],
      [
        "Ġc",
        "re"
      ],
      [
        "vel",
        "op"
      ],
      [
        "Ġm",
        "an"
      ],
      [
        "ĠC",
        "on"
      ],
      [
        "Ġ",
        "ro"
      ],
      [
        "ĠS",
        "t"
      ],
      [
        "ur",
        "es"
      ],
      [
        "Ġa",
        "b"
      ],
      [
        "i",
        "ve"
      ],
      [
        "i",
        "re"
      ],
      [
        "st",
        "and"
      ],
      [
        "if",
        "ic"
      ],
      [
        "ar",
        "k"
      ],
      [
        "nder",
        "stand"
      ],
      [
        "Ġp",
        "re"
      ],
      [
        "l",
        "ic"
      ],
      [
        "Ġt",
        "ra"
      ],
      [
        "e",
        "ar"
      ],
      [
        "a",
        "il"
      ],
      [
        "ol",
        "og"
      ],
      [
        "el",
        "l"
      ],
      [
        "Ġpro",
        "v"
      ],
      [
        "Ġth",
        "rough"
      ],
      [
        "i",
        "ous"
      ],
      [
        "r",
        "ess"
      ],
      [
        "Ġe",
        "v"
      ],
      [
        "e",
        "g"
      ],
      [
        "ĠTh",
        "e"
      ],
      [
        "o",
        "ver"
      ],
      [
        "om",
        "e"
      ],
      [
        "e",
        "f"
      ],
      [
        "Ġp",
        "er"
      ],
      [
        "Ġit",
        "s"
      ],
      [
        "Ġa",
        "re"
      ],
      [
        "r",
        "y"
      ],
      [
        "n",
        "ing"
      ],
      [
        "Ġd",
        "es"
      ],
      [
        "d",
        "ing"
      ],
      [
        "ul",
        "t"
      ],
      [
        "Ġ",
        "j"
      ],
      [
        "ac",
        "e"
      ],
      [
        "et",
        "w"
      ],
      [
        "h",
        "er"
      ],
      [
        "Ġc",
        "l"
      ],
      [
        "Ġinc",
        "l"
      ],
      [
        "Ġs",
        "p"
      ],
      [
        "--",
        "--"
      ],
      [
        "Ġl",
        "ike"
      ],
      [
        "m",
        "s"
      ],
      [
        "ate",
        "g"
      ],
      [
        "ac",
        "k"
      ],
      [
        "h",
        "ip"
      ],
      [
        "Ġex",
        "per"
      ],
      [
        "â",
        "Ģ"
      ],
      [
        "i",
        "qu"
      ],
      [
        "tic",
        "al"
      ],
      [
        "at",
        "es"
      ],
      [
        "Ġin",
        "s"
      ],
      [
        "Ġt",
        "echn"
      ],
      [
        "*",
        "*"
      ],
      [
        "l",
        "es"
      ],
      [
        "ti",
        "m"
      ],
      [
        "Ġre",
        "c"
      ],
      [
        "ou",
        "n"
      ],
      [
        "Ġm",
        "e"
      ],
      [
        "Ġre",
        "g"
      ],
      [
        "Ġo",
        "ver"
      ],
      [
        "er",
        "v"
      ],
      [
        "t",
        "ain"
      ],
      [
        "p",
        "le"
      ],
      [
        "as",
        "e"
      ],
      [
        "g",
        "es"
      ],
      [
        "Ġre",
        "l"
      ],
      [
        "ec",
        "t"
      ],
      [
        "Ġo",
        "p"
      ],
      [
        "Ġde",
        "velop"
      ],
      [
        "at",
        "er"
      ],
      [
        "p",
        "on"
      ],
      [
        "is",
        "h"
      ],
      [
        "as",
        "s"
      ],
      [
        "a",
        "tive"
      ],
      [
        "Ġincl",
        "ud"
      ],
      [
        "c",
        "i"
      ],
      [
        "o",
        "o"
      ],
      [
        "c",
        "l"
      ],
      [
        "ĠC",
        "h"
      ],
      [
        "ti",
        "v"
      ],
      [
        "ion",
        "s"
      ],
      [
        "I",
        "n"
      ],
      [
        "enc",
        "es"
      ],
      [
        "p",
        "h"
      ],
      [
        "nderstand",
        "ing"
      ],
      [
        "Ġex",
        "pl"
      ],
      [
        "Ġe",
        "ff"
      ],
      [
        "ow",
        "er"
      ],
      [
        "Ġsuc",
        "h"
      ],
      [
        "i",
        "a"
      ],
      [
        "r",
        "ic"
      ],
      [
        "our",
        "se"
      ],
      [
        "Ġtr",
        "ans"
      ],
      [
        "Ġs",
        "ign"
      ],
      [
        "id",
        "er"
      ],
      [
        "ul",
        "ar"
      ],
      [
        "or",
        "y"
      ],
      [
        "I",
        "I"
      ],
      [
        "Ġc",
        "ol"
      ],
      [
        "al",
        "th"
      ],
      [
        "ri",
        "b"
      ],
      [
        "y",
        "s"
      ],
      [
        "duc",
        "tion"
      ],
      [
        "pp",
        "ort"
      ],
      [
        "al",
        "s"
      ],
      [
        "rou",
        "nd"
      ],
      [
        "e",
        "en"
      ],
      [
        "Ġa",
        "m"
      ],
      [
        "ers",
        "on"
      ],
      [
        "ĠE",
        "x"
      ],
      [
        "ark",
        "et"
      ],
      [
        "el",
        "y"
      ],
      [
        "r",
        "uc"
      ],
      [
        "Ġexper",
        "i"
      ],
      [
        "Ġwh",
        "ile"
      ],
      [
        "d",
        "ition"
      ],
      [
        "Ġ",
        "qu"
      ],
      [
        "e",
        "ed"
      ],
      [
        "ation",
        "al"
      ],
      [
        "Ġ",
        "-"
      ],
      [
        "in",
        "d"
      ],
      [
        "Ġst",
        "ud"
      ],
      [
        "etw",
        "een"
      ],
      [
        "ro",
        "w"
      ],
      [
        "Ġv",
        "ar"
      ],
      [
        "Ġw",
        "ill"
      ],
      [
        "s",
        "s"
      ],
      [
        "ab",
        "ility"
      ],
      [
        "Ġs",
        "y"
      ],
      [
        "Ġcomm",
        "un"
      ],
      [
        "u",
        "es"
      ],
      [
        "Ġas",
        "s"
      ],
      [
        "Ġo",
        "ur"
      ],
      [
        "Ġh",
        "ow"
      ],
      [
        "Ġb",
        "etween"
      ],
      [
        "g",
        "ing"
      ],
      [
        "Ġen",
        "s"
      ],
      [
        "in",
        "ess"
      ],
      [
        "o",
        "v"
      ],
      [
        "ĠB",
        "y"
      ],
      [
        "t",
        "en"
      ],
      [
        "Ġh",
        "igh"
      ],
      [
        "as",
        "ed"
      ],
      [
        "it",
        "s"
      ],
      [
        "Ġb",
        "o"
      ],
      [
        "Ġac",
        "c"
      ],
      [
        "os",
        "e"
      ],
      [
        "a",
        "ve"
      ],
      [
        "ard",
        "s"
      ],
      [
        "ĠU",
        "n"
      ],
      [
        "Ġt",
        "im"
      ],
      [
        "u",
        "b"
      ],
      [
        "a",
        "k"
      ],
      [
        "r",
        "ac"
      ],
      [
        "Ġad",
        "v"
      ],
      [
        "Ġstr",
        "ateg"
      ],
      [
        "Ġex",
        "am"
      ],
      [
        "iv",
        "id"
      ],
      [
        "t",
        "ro"
      ],
      [
        "ou",
        "nd"
      ],
      [
        "a",
        "ke"
      ],
      [
        "in",
        "ing"
      ],
      [
        "al",
        "ly"
      ],
      [
        "Ġen",
        "g"
      ],
      [
        "ot",
        "ential"
      ],
      [
        "ĠP",
        "ro"
      ],
      [
        "ic",
        "h"
      ],
      [
        "v",
        "ol"
      ],
      [
        "p",
        "t"
      ],
      [
        "e",
        "y"
      ],
      [
        "Ġ",
        "2"
      ],
      [
        "Ġprov",
        "id"
      ],
      [
        "Ġre",
        "qu"
      ],
      [
        "ĠC",
        "om"
      ],
      [
        "Ġre",
        "m"
      ],
      [
        "ec",
        "tion"
      ],
      [
        "o",
        "y"
      ],
      [
        "Ġthe",
        "y"
      ],
      [
        "p",
        "or"
      ],
      [
        "iz",
        "ing"
      ],
      [
        "us",
        "ion"
      ],
      [
        "Ġpr",
        "ac"
      ],
      [
        "v",
        "ing"
      ],
      [
        "T",
        "h"
      ],
      [
        "Ġ",
        "V"
      ],
      [
        "ĠTh",
        "is"
      ],
      [
        "ĠA",
        "d"
      ],
      [
        "e",
        "x"
      ],
      [
        "n",
        "ess"
      ],
      [
        "st",
        "em"
      ],
      [
        "p",
        "ar"
      ],
      [
        "erson",
        "al"
      ],
      [
        "Ġ",
        "k"
      ],
      [
        "Ġsign",
        "ific"
      ],
      [
        "e",
        "ver"
      ],
      [
        "Ġp",
        "os"
      ],
      [
        "Ġ",
        "Ġ"
      ],
      [
        "ivid",
        "ual"
      ],
      [
        "Ġs",
        "pec"
      ],
      [
        "Ġo",
        "ut"
      ],
      [
        "Ġp",
        "h"
      ],
      [
        "Ġhe",
        "alth"
      ],
      [
        "tion",
        "al"
      ],
      [
        "Ġp",
        "otential"
      ],
      [
        "el",
        "f"
      ],
      [
        "us",
        "iness"
      ],
      [
        "ic",
        "es"
      ],
      [
        "Ġwh",
        "en"
      ],
      [
        "er",
        "ing"
      ],
      [
        "iz",
        "e"
      ],
      [
        "Ġdes",
        "ign"
      ],
      [
        "Ġv",
        "al"
      ],
      [
        "n",
        "ow"
      ],
      [
        "Ġ",
        "J"
      ],
      [
        "all",
        "en"
      ],
      [
        "Ġpro",
        "m"
      ],
      [
        "igh",
        "ts"
      ],
      [
        "age",
        "ment"
      ],
      [
        "Ġvar",
        "ious"
      ],
      [
        "Ġdis",
        "c"
      ],
      [
        "Ġin",
        "st"
      ],
      [
        "o",
        "b"
      ],
      [
        "Ġind",
        "ividual"
      ],
      [
        "ter",
        "n"
      ],
      [
        "Ġab",
        "out"
      ],
      [
        "Ġpl",
        "ay"
      ],
      [
        "enc",
        "y"
      ],
      [
        "Ġs",
        "c"
      ],
      [
        "it",
        "al"
      ],
      [
        "v",
        "en"
      ],
      [
        "ur",
        "al"
      ],
      [
        "a",
        "king"
      ],
      [
        "it",
        "e"
      ],
      [
        "Ġm",
        "ain"
      ],
      [
        "ing",
        "s"
      ],
      [
        "on",
        "d"
      ],
      [
        "at",
        "a"
      ],
      [
        "in",
        "es"
      ],
      [
        "Ġpro",
        "cess"
      ],
      [
        "ĠW",
        "h"
      ],
      [
        "r",
        "es"
      ],
      [
        "Ġf",
        "e"
      ],
      [
        "Ġs",
        "k"
      ],
      [
        "Ġm",
        "arket"
      ],
      [
        "Ġd",
        "uring"
      ],
      [
        "Ġthe",
        "m"
      ],
      [
        "ic",
        "e"
      ],
      [
        "Ġp",
        "ol"
      ],
      [
        "o",
        "od"
      ],
      [
        "t",
        "y"
      ],
      [
        "Ġd",
        "ec"
      ],
      [
        "Ġle",
        "ad"
      ],
      [
        "cl",
        "usion"
      ],
      [
        "g",
        "an"
      ],
      [
        "Ġ",
        "K"
      ],
      [
        "ou",
        "ld"
      ],
      [
        "ĠA",
        "n"
      ],
      [
        "Ġd",
        "el"
      ],
      [
        "oc",
        "i"
      ],
      [
        ")",
        "."
      ],
      [
        "olog",
        "y"
      ],
      [
        "ĠE",
        "n"
      ],
      [
        "er",
        "n"
      ],
      [
        "Ġm",
        "od"
      ],
      [
        "i",
        "ew"
      ],
      [
        "Ġcons",
        "ider"
      ],
      [
        "Ġapp",
        "ro"
      ],
      [
        "tic",
        "s"
      ],
      [
        "Ġ",
        "1"
      ],
      [
        "or",
        "ing"
      ],
      [
        "tro",
        "duction"
      ],
      [
        "y",
        "p"
      ],
      [
        "ĠI",
        "m"
      ],
      [
        "ag",
        "ing"
      ],
      [
        "ti",
        "l"
      ],
      [
        "Ġle",
        "ar"
      ],
      [
        "Ġa",
        "g"
      ],
      [
        "rib",
        "ut"
      ],
      [
        "Ġof",
        "f"
      ],
      [
        "Ġu",
        "p"
      ],
      [
        "Ġn",
        "ot"
      ],
      [
        "Ġch",
        "allen"
      ],
      [
        "iz",
        "ed"
      ],
      [
        "Ġre",
        "p"
      ],
      [
        "Ġex",
        "p"
      ],
      [
        "Ġm",
        "ore"
      ],
      [
        "Ġpro",
        "duc"
      ],
      [
        "Ġal",
        "low"
      ],
      [
        "Ġin",
        "f"
      ],
      [
        "g",
        "et"
      ],
      [
        "Ġen",
        "h"
      ],
      [
        "Ġeff",
        "ec"
      ],
      [
        "Ġin",
        "vol"
      ],
      [
        "Ġpr",
        "es"
      ],
      [
        "Ġpro",
        "f"
      ],
      [
        "t",
        "ed"
      ],
      [
        "ust",
        "om"
      ],
      [
        "p",
        "s"
      ],
      [
        "iv",
        "ers"
      ],
      [
        "u",
        "il"
      ],
      [
        "Ġb",
        "usiness"
      ],
      [
        "Ġm",
        "et"
      ],
      [
        "Ġd",
        "em"
      ],
      [
        "ro",
        "ss"
      ],
      [
        "ag",
        "es"
      ],
      [
        "Ġh",
        "ave"
      ],
      [
        "Ġg",
        "en"
      ],
      [
        "Ġ",
        "ed"
      ],
      [
        "Ġh",
        "as"
      ],
      [
        "l",
        "ed"
      ],
      [
        "Ġun",
        "it"
      ],
      [
        "Ġsignific",
        "ant"
      ],
      [
        "Ġc",
        "are"
      ],
      [
        "Ġbo",
        "th"
      ],
      [
        "Ġal",
        "l"
      ],
      [
        "anc",
        "es"
      ],
      [
        "oc",
        "us"
      ],
      [
        "Ġd",
        "if"
      ],
      [
        "ou",
        "gh"
      ],
      [
        "ar",
        "m"
      ],
      [
        "Ġv",
        "is"
      ],
      [
        "d",
        "i"
      ],
      [
        "Ġ",
        "ke"
      ],
      [
        "ic",
        "i"
      ],
      [
        "Ġm",
        "ed"
      ],
      [
        "s",
        "o"
      ],
      [
        "at",
        "h"
      ],
      [
        "Ġsy",
        "stem"
      ],
      [
        "Ġ",
        "âĢ"
      ],
      [
        "Ġs",
        "erv"
      ],
      [
        "Ġf",
        "in"
      ],
      [
        "Ġres",
        "pon"
      ],
      [
        "Ġg",
        "row"
      ],
      [
        "Ġl",
        "oc"
      ],
      [
        "Ġs",
        "et"
      ],
      [
        "a",
        "f"
      ],
      [
        "Ġex",
        "t"
      ],
      [
        "al",
        "ity"
      ],
      [
        "vel",
        "y"
      ],
      [
        "Ġf",
        "ost"
      ],
      [
        "c",
        "om"
      ],
      [
        "Ġre",
        "f"
      ],
      [
        "Ġs",
        "o"
      ],
      [
        "i",
        "e"
      ],
      [
        "on",
        "e"
      ],
      [
        "Ġsuc",
        "cess"
      ],
      [
        "ic",
        "ation"
      ],
      [
        "c",
        "es"
      ],
      [
        "Ġinc",
        "re"
      ],
      [
        "l",
        "ing"
      ],
      [
        "ib",
        "le"
      ],
      [
        "Ġwor",
        "ld"
      ],
      [
        "ĠA",
        "s"
      ],
      [
        "ic",
        "s"
      ],
      [
        "u",
        "tion"
      ],
      [
        "Ġimp",
        "ro"
      ],
      [
        "Ġo",
        "ther"
      ],
      [
        "and",
        "s"
      ],
      [
        "or",
        "d"
      ],
      [
        "Ġin",
        "form"
      ],
      [
        "pport",
        "un"
      ],
      [
        "is",
        "e"
      ],
      [
        "Ġdevelop",
        "ment"
      ],
      [
        "Ġn",
        "ew"
      ],
      [
        "Ġp",
        "ersonal"
      ],
      [
        "Ġe",
        "ver"
      ],
      [
        "Ġh",
        "el"
      ],
      [
        "Ġf",
        "ac"
      ],
      [
        "Ġf",
        "ocus"
      ],
      [
        "iz",
        "ation"
      ],
      [
        "iqu",
        "e"
      ],
      [
        "Ġper",
        "form"
      ],
      [
        "Ġm",
        "ay"
      ],
      [
        "Ġt",
        "e"
      ],
      [
        "ur",
        "ther"
      ],
      [
        "Ġ",
        "ess"
      ],
      [
        "Ġd",
        "ata"
      ],
      [
        "ol",
        "d"
      ],
      [
        "em",
        "b"
      ],
      [
        "Ġb",
        "ec"
      ],
      [
        "Ġk",
        "now"
      ],
      [
        "ab",
        "or"
      ],
      [
        "ĠF",
        "or"
      ],
      [
        "er",
        "g"
      ],
      [
        "Ġu",
        "nderstanding"
      ],
      [
        "Ġn",
        "eed"
      ],
      [
        "Ġs",
        "ur"
      ],
      [
        "Ġtim",
        "e"
      ],
      [
        "Ġc",
        "ap"
      ],
      [
        "Ġto",
        "w"
      ],
      [
        "Ġad",
        "d"
      ],
      [
        "tic",
        "es"
      ],
      [
        "o",
        "in"
      ],
      [
        "et",
        "y"
      ],
      [
        "ĠUn",
        "it"
      ],
      [
        "en",
        "ef"
      ],
      [
        "Ġor",
        "gan"
      ],
      [
        "Ġpro",
        "g"
      ],
      [
        "Ġan",
        "al"
      ],
      [
        "Ġcomp",
        "le"
      ],
      [
        "c",
        "t"
      ],
      [
        "Ġof",
        "fer"
      ],
      [
        "it",
        "le"
      ],
      [
        "Ġpar",
        "tic"
      ],
      [
        "pl",
        "es"
      ],
      [
        "Ġmain",
        "tain"
      ],
      [
        "ra",
        "m"
      ],
      [
        "ĠâĢ",
        "ĵ"
      ],
      [
        "ical",
        "ly"
      ],
      [
        "Ġdif",
        "fer"
      ],
      [
        "ti",
        "t"
      ],
      [
        "Ġch",
        "an"
      ],
      [
        "Ġon",
        "e"
      ],
      [
        "ir",
        "on"
      ],
      [
        "Ġwh",
        "ich"
      ],
      [
        "us",
        "s"
      ],
      [
        "eg",
        "r"
      ],
      [
        "----",
        "----"
      ],
      [
        "Ġal",
        "so"
      ],
      [
        "Ġs",
        "im"
      ],
      [
        "n",
        "e"
      ],
      [
        "Ġc",
        "ustom"
      ],
      [
        "oun",
        "t"
      ],
      [
        "ent",
        "ly"
      ],
      [
        "Ġc",
        "o"
      ],
      [
        "enti",
        "f"
      ],
      [
        "Ġwh",
        "ere"
      ],
      [
        "Ġinclud",
        "ing"
      ],
      [
        "for",
        "e"
      ],
      [
        ")",
        ","
      ],
      [
        "Ġre",
        "al"
      ],
      [
        "ĠT",
        "itle"
      ],
      [
        "pec",
        "t"
      ],
      [
        "Ġcont",
        "ribut"
      ],
      [
        "Ġd",
        "o"
      ],
      [
        "Ġess",
        "ential"
      ],
      [
        "ol",
        "s"
      ],
      [
        "Ġs",
        "ol"
      ],
      [
        "l",
        "ine"
      ],
      [
        "ay",
        "s"
      ],
      [
        "y",
        "ing"
      ],
      [
        "ĠH",
        "ow"
      ],
      [
        "our",
        "ces"
      ],
      [
        "Ġo",
        "pportun"
      ],
      [
        "ĠTh",
        "ese"
      ],
      [
        "Ġ2",
        "0"
      ],
      [
        "il",
        "ities"
      ],
      [
        "Ġs",
        "ec"
      ],
      [
        "v",
        "iron"
      ],
      [
        "Ġstrateg",
        "ies"
      ],
      [
        "re",
        "e"
      ],
      [
        "Ġc",
        "ult"
      ],
      [
        "on",
        "s"
      ],
      [
        "iqu",
        "es"
      ],
      [
        "Th",
        "e"
      ],
      [
        "Ġb",
        "ut"
      ],
      [
        "ir",
        "st"
      ],
      [
        "ti",
        "es"
      ],
      [
        "Ġed",
        "uc"
      ],
      [
        "Ġo",
        "b"
      ],
      [
        "Ġc",
        "ourse"
      ],
      [
        "Ġs",
        "er"
      ],
      [
        "dition",
        "al"
      ],
      [
        "Ġsu",
        "b"
      ],
      [
        "Ġb",
        "l"
      ],
      [
        "ar",
        "t"
      ],
      [
        "ĠD",
        "e"
      ],
      [
        "ex",
        "t"
      ],
      [
        "Ġg",
        "u"
      ],
      [
        "u",
        "tions"
      ],
      [
        "ac",
        "y"
      ],
      [
        "Ġpro",
        "t"
      ],
      [
        "Ġth",
        "ere"
      ],
      [
        "Ġac",
        "cess"
      ],
      [
        "l",
        "abor"
      ],
      [
        "Ġ",
        "ra"
      ],
      [
        "Ġat",
        "t"
      ],
      [
        "l",
        "ish"
      ],
      [
        "Ġin",
        "n"
      ],
      [
        "r",
        "u"
      ],
      [
        "Ġwh",
        "o"
      ],
      [
        "Ġu",
        "nder"
      ],
      [
        "ruc",
        "ial"
      ],
      [
        "Ġcon",
        "n"
      ],
      [
        "at",
        "ely"
      ],
      [
        "Ġm",
        "o"
      ],
      [
        "Ġapp",
        "lic"
      ],
      [
        "el",
        "s"
      ],
      [
        "Ġrel",
        "ations"
      ],
      [
        "re",
        "at"
      ],
      [
        "Ġam",
        "ong"
      ],
      [
        "Ġch",
        "ar"
      ],
      [
        "Ġro",
        "le"
      ],
      [
        "ĠA",
        "c"
      ],
      [
        "it",
        "ing"
      ],
      [
        "Ġth",
        "an"
      ],
      [
        "ib",
        "ility"
      ],
      [
        "end",
        "s"
      ],
      [
        "ess",
        "ion"
      ],
      [
        "Ġsk",
        "ill"
      ],
      [
        "lec",
        "t"
      ],
      [
        "un",
        "c"
      ],
      [
        "Ġc",
        "rucial"
      ],
      [
        "n",
        "ers"
      ],
      [
        "a",
        "w"
      ],
      [
        "ou",
        "ra"
      ],
      [
        "Ġd",
        "et"
      ],
      [
        "Ġ",
        "id"
      ],
      [
        "Ġfor",
        "m"
      ],
      [
        "Ġun",
        "ique"
      ],
      [
        "l",
        "ess"
      ],
      [
        "at",
        "ure"
      ],
      [
        "is",
        "m"
      ],
      [
        "ĠC",
        "ourse"
      ],
      [
        "hip",
        "s"
      ],
      [
        "Ġs",
        "ome"
      ],
      [
        "v",
        "ed"
      ],
      [
        "Ġf",
        "l"
      ],
      [
        "Ġp",
        "ower"
      ],
      [
        "Ġ",
        "ent"
      ],
      [
        "f",
        "t"
      ],
      [
        "at",
        "form"
      ],
      [
        "Ġcon",
        "f"
      ],
      [
        "oc",
        "ial"
      ],
      [
        "Ġprac",
        "tices"
      ],
      [
        "v",
        "iew"
      ],
      [
        "ĠR",
        "e"
      ],
      [
        "Ġen",
        "c"
      ],
      [
        "if",
        "e"
      ],
      [
        "il",
        "i"
      ],
      [
        "pl",
        "oy"
      ],
      [
        "Ġcont",
        "in"
      ],
      [
        "Ġus",
        "ing"
      ],
      [
        "Ġgrow",
        "th"
      ],
      [
        "le",
        "v"
      ],
      [
        "j",
        "ec"
      ],
      [
        "Ġb",
        "enef"
      ],
      [
        "Ġ",
        "&"
      ],
      [
        "Ġwith",
        "in"
      ],
      [
        "Ġwor",
        "k"
      ],
      [
        "in",
        "ation"
      ],
      [
        "r",
        "is"
      ],
      [
        "Ġe",
        "qu"
      ],
      [
        "Ġen",
        "viron"
      ],
      [
        "Ġinclud",
        "e"
      ],
      [
        "is",
        "s"
      ],
      [
        "Ġin",
        "ves"
      ],
      [
        "Ġcon",
        "c"
      ],
      [
        "ow",
        "n"
      ],
      [
        "Ġan",
        "y"
      ],
      [
        "ce",
        "p"
      ],
      [
        "oo",
        "k"
      ],
      [
        "Ġm",
        "us"
      ],
      [
        "ra",
        "ph"
      ],
      [
        "Ġm",
        "in"
      ],
      [
        "am",
        "e"
      ],
      [
        "Ġd",
        "ist"
      ],
      [
        "anc",
        "ing"
      ],
      [
        "Ġke",
        "y"
      ],
      [
        "Ġt",
        "yp"
      ],
      [
        "Ġof",
        "ten"
      ],
      [
        "Ġwh",
        "at"
      ],
      [
        "ol",
        "low"
      ],
      [
        "Ġle",
        "t"
      ],
      [
        "Ġg",
        "l"
      ],
      [
        "Ġd",
        "ue"
      ],
      [
        "an",
        "g"
      ],
      [
        "Ġb",
        "uil"
      ],
      [
        "Ġtow",
        "ards"
      ],
      [
        ".",
        ","
      ],
      [
        "Ġn",
        "o"
      ],
      [
        "Ġac",
        "ross"
      ],
      [
        "Ġinn",
        "ov"
      ],
      [
        "ĠE",
        "m"
      ],
      [
        "Ġm",
        "ul"
      ],
      [
        "ro",
        "l"
      ],
      [
        "Ġs",
        "af"
      ],
      [
        "as",
        "ing"
      ],
      [
        "Ġappro",
        "ach"
      ],
      [
        "ub",
        "lic"
      ],
      [
        "Ġchallen",
        "ges"
      ],
      [
        "c",
        "on"
      ],
      [
        "are",
        "d"
      ],
      [
        "v",
        "ers"
      ],
      [
        "Ġover",
        "all"
      ],
      [
        "Ġem",
        "b"
      ],
      [
        "e",
        "ad"
      ],
      [
        "il",
        "y"
      ],
      [
        "Ġp",
        "ri"
      ],
      [
        "Ġrespon",
        "s"
      ],
      [
        "ĠI",
        "t"
      ],
      [
        "or",
        "ies"
      ],
      [
        "ĠA",
        "r"
      ],
      [
        "ort",
        "ance"
      ],
      [
        "Ġc",
        "ur"
      ],
      [
        "Ġm",
        "ight"
      ],
      [
        "is",
        "ion"
      ],
      [
        "a",
        "x"
      ],
      [
        "Ġwith",
        "out"
      ],
      [
        "et",
        "s"
      ],
      [
        "Ġrequ",
        "ire"
      ],
      [
        "Ġopportun",
        "ities"
      ],
      [
        "f",
        "for"
      ],
      [
        "as",
        "es"
      ],
      [
        "ater",
        "ial"
      ],
      [
        "u",
        "th"
      ],
      [
        "l",
        "u"
      ],
      [
        "Ġint",
        "egr"
      ],
      [
        "Ġ",
        "Y"
      ],
      [
        "Ġ",
        "\""
      ],
      [
        "Ġpl",
        "atform"
      ],
      [
        "act",
        "ors"
      ],
      [
        "Ġtechn",
        "iques"
      ],
      [
        "Ġstud",
        "ents"
      ],
      [
        "ap",
        "e"
      ],
      [
        "Ġd",
        "ivers"
      ],
      [
        "Ġp",
        "ur"
      ],
      [
        "er",
        "m"
      ],
      [
        "ĠA",
        "l"
      ],
      [
        "Ġis",
        "s"
      ],
      [
        "Ġ",
        "est"
      ],
      [
        "Ġth",
        "ose"
      ],
      [
        "pec",
        "ts"
      ],
      [
        "ti",
        "ves"
      ],
      [
        "Ġins",
        "ights"
      ],
      [
        "ut",
        "ure"
      ],
      [
        "at",
        "her"
      ],
      [
        "h",
        "od"
      ],
      [
        "Ġem",
        "p"
      ],
      [
        "ig",
        "ital"
      ],
      [
        "Ġh",
        "ist"
      ],
      [
        "Ġbe",
        "h"
      ],
      [
        "ab",
        "lish"
      ],
      [
        "ard",
        "ing"
      ],
      [
        "Ġo",
        "per"
      ],
      [
        "av",
        "ig"
      ],
      [
        "Ġse",
        "e"
      ],
      [
        "ĠA",
        "pp"
      ],
      [
        "Ġindividual",
        "s"
      ],
      [
        "ec",
        "ess"
      ],
      [
        "or",
        "por"
      ],
      [
        "Ġgen",
        "er"
      ],
      [
        "Ġe",
        "ach"
      ],
      [
        "Ġf",
        "unc"
      ],
      [
        "Ġa",
        "v"
      ],
      [
        "iti",
        "ve"
      ],
      [
        "Ġg",
        "o"
      ],
      [
        "en",
        "ess"
      ],
      [
        "Ġp",
        "e"
      ],
      [
        "Ġever",
        "y"
      ],
      [
        "anc",
        "ed"
      ],
      [
        "r",
        "on"
      ],
      [
        "t",
        "ure"
      ],
      [
        "en",
        "g"
      ],
      [
        "og",
        "n"
      ],
      [
        "Ġs",
        "m"
      ],
      [
        "S",
        "t"
      ],
      [
        "Ġexperi",
        "ence"
      ],
      [
        "Ġb",
        "ased"
      ],
      [
        "Ġar",
        "ti"
      ],
      [
        "Ġf",
        "ollow"
      ],
      [
        "Ġh",
        "er"
      ],
      [
        "Ġprov",
        "ide"
      ],
      [
        "Ġmul",
        "ti"
      ],
      [
        "Ġind",
        "ust"
      ],
      [
        "Ġprof",
        "ession"
      ],
      [
        "ent",
        "al"
      ],
      [
        "ĠIm",
        "p"
      ],
      [
        "ĠIn",
        "troduction"
      ],
      [
        "Ġdisc",
        "uss"
      ],
      [
        "r",
        "act"
      ],
      [
        "Ġh",
        "um"
      ],
      [
        "ti",
        "vely"
      ],
      [
        "ic",
        "ations"
      ],
      [
        "Ġens",
        "uring"
      ],
      [
        "Ġb",
        "ack"
      ],
      [
        "d",
        "ay"
      ],
      [
        "or",
        "k"
      ],
      [
        "Ġpro",
        "per"
      ],
      [
        "an",
        "ts"
      ],
      [
        "Ġexpl",
        "ore"
      ],
      [
        "ar",
        "ly"
      ],
      [
        "Ġimp",
        "act"
      ],
      [
        "i",
        "el"
      ],
      [
        "Ġadd",
        "ress"
      ],
      [
        "Ġl",
        "ong"
      ],
      [
        "ear",
        "ch"
      ],
      [
        "ĠU",
        "nderstanding"
      ],
      [
        "Ġe",
        "le"
      ],
      [
        "a",
        "ir"
      ],
      [
        "Ġs",
        "ocial"
      ],
      [
        "Ġmarket",
        "ing"
      ],
      [
        "Ġp",
        "op"
      ],
      [
        "Ġthrough",
        "out"
      ],
      [
        "Ġen",
        "ab"
      ],
      [
        "f",
        "act"
      ],
      [
        "Ġse",
        "ver"
      ],
      [
        "ĠTh",
        "rough"
      ],
      [
        "Ġrem",
        "ain"
      ],
      [
        "Ġhel",
        "p"
      ],
      [
        "at",
        "ch"
      ],
      [
        "Ġpar",
        "t"
      ],
      [
        "ĠHow",
        "ever"
      ],
      [
        "Ġr",
        "is"
      ],
      [
        "ment",
        "al"
      ],
      [
        "Ġg",
        "ain"
      ],
      [
        "og",
        "raph"
      ],
      [
        "Ġm",
        "aterial"
      ],
      [
        "Ġcomp",
        "on"
      ],
      [
        "Ġem",
        "ploy"
      ],
      [
        "Ġ",
        "'"
      ],
      [
        "Ġrequ",
        "ir"
      ],
      [
        "Ġcol",
        "labor"
      ],
      [
        "i",
        "ed"
      ],
      [
        "in",
        "s"
      ],
      [
        "Ġskill",
        "s"
      ],
      [
        "Ġsystem",
        "s"
      ],
      [
        "C",
        "on"
      ],
      [
        "Ġdiffer",
        "ent"
      ],
      [
        "ore",
        "over"
      ],
      [
        "Ġlear",
        "ning"
      ],
      [
        "or",
        "ed"
      ],
      [
        "u",
        "nd"
      ],
      [
        "Ġtra",
        "vel"
      ],
      [
        "ys",
        "is"
      ],
      [
        "ĠA",
        "m"
      ],
      [
        "Ġin",
        "iti"
      ],
      [
        "led",
        "ge"
      ],
      [
        "our",
        "n"
      ],
      [
        "Ġcomple",
        "x"
      ],
      [
        "Ġst",
        "and"
      ],
      [
        "c",
        "are"
      ],
      [
        "Ġc",
        "ould"
      ],
      [
        "ra",
        "nd"
      ],
      [
        "Ġman",
        "agement"
      ],
      [
        "ud",
        "i"
      ],
      [
        "'",
        "t"
      ],
      [
        "Ġexperi",
        "ences"
      ],
      [
        "Ġc",
        "le"
      ],
      [
        "Ġm",
        "ust"
      ],
      [
        "Ġass",
        "oci"
      ],
      [
        "at",
        "ures"
      ],
      [
        "ac",
        "ter"
      ],
      [
        "Ġpr",
        "in"
      ],
      [
        "f",
        "ter"
      ],
      [
        "al",
        "u"
      ],
      [
        "Ġh",
        "is"
      ],
      [
        "lec",
        "tion"
      ],
      [
        "Ġle",
        "vel"
      ],
      [
        "Ġt",
        "w"
      ],
      [
        "p",
        "ir"
      ],
      [
        "Ġmet",
        "hod"
      ],
      [
        "Ġinf",
        "lu"
      ],
      [
        "Ġcre",
        "ate"
      ],
      [
        "Ġop",
        "tim"
      ],
      [
        "um",
        "er"
      ],
      [
        "Ġn",
        "ecess"
      ],
      [
        "ĠCon",
        "s"
      ],
      [
        "Ġb",
        "re"
      ],
      [
        "eng",
        "th"
      ],
      [
        "Ġres",
        "ources"
      ],
      [
        "ens",
        "ive"
      ],
      [
        "Ġres",
        "earch"
      ],
      [
        "Ġpol",
        "ic"
      ],
      [
        "y",
        "n"
      ],
      [
        "a",
        "us"
      ],
      [
        "Ġsu",
        "pp"
      ],
      [
        "iel",
        "d"
      ],
      [
        "Ġa",
        "round"
      ],
      [
        "ĠM",
        "an"
      ],
      [
        "Ġac",
        "tiv"
      ],
      [
        "y",
        "z"
      ],
      [
        "u",
        "fact"
      ],
      [
        "Ġtechn",
        "ology"
      ],
      [
        "Ġas",
        "pects"
      ],
      [
        "Ġo",
        "w"
      ],
      [
        "Ġev",
        "en"
      ],
      [
        "Ġperform",
        "ance"
      ],
      [
        "Ġim",
        "m"
      ],
      [
        "o",
        "ther"
      ],
      [
        "Ġre",
        "duc"
      ],
      [
        "Ġsu",
        "pport"
      ],
      [
        "Ġoff",
        "ers"
      ],
      [
        "ĠW",
        "ith"
      ],
      [
        "Ġinter",
        "n"
      ],
      [
        "olog",
        "ical"
      ],
      [
        "Ġs",
        "ch"
      ],
      [
        "ĠW",
        "e"
      ],
      [
        "le",
        "ment"
      ],
      [
        "b",
        "le"
      ],
      [
        "Ġf",
        "actors"
      ],
      [
        "Ġcommun",
        "ication"
      ],
      [
        "oc",
        "k"
      ],
      [
        "t",
        "o"
      ],
      [
        "Ġf",
        "urther"
      ],
      [
        "di",
        "tions"
      ],
      [
        "iv",
        "ing"
      ],
      [
        "ic",
        "k"
      ],
      [
        "ly",
        "ing"
      ],
      [
        "Ġeff",
        "ici"
      ],
      [
        "Ġorgan",
        "iz"
      ],
      [
        "or",
        "ding"
      ],
      [
        "Ġa",
        "im"
      ],
      [
        "Ġwe",
        "b"
      ],
      [
        "Ġens",
        "ure"
      ],
      [
        "Ġte",
        "am"
      ],
      [
        "Ġde",
        "ep"
      ],
      [
        "i",
        "or"
      ],
      [
        "Ġd",
        "igital"
      ],
      [
        "re",
        "ci"
      ],
      [
        "Ġsuccess",
        "ful"
      ],
      [
        "Ġm",
        "on"
      ],
      [
        "ti",
        "ce"
      ],
      [
        "I",
        "V"
      ],
      [
        "Ġp",
        "ublic"
      ],
      [
        "Ġiss",
        "ues"
      ],
      [
        "ĠCom",
        "m"
      ],
      [
        "st",
        "r"
      ],
      [
        "Ġ",
        "if"
      ],
      [
        "st",
        "ruc"
      ],
      [
        "Ġserv",
        "ices"
      ],
      [
        "Ġloc",
        "al"
      ],
      [
        "end",
        "ing"
      ],
      [
        "Ġ",
        "**"
      ],
      [
        "Ġch",
        "o"
      ],
      [
        "ĠSt",
        "ud"
      ],
      [
        "Ġle",
        "g"
      ],
      [
        "Ġcont",
        "rol"
      ],
      [
        "i",
        "ver"
      ],
      [
        "Ġfost",
        "ering"
      ],
      [
        "il",
        "d"
      ],
      [
        "Ġprovid",
        "ing"
      ],
      [
        "Ġa",
        "w"
      ],
      [
        "Ġf",
        "uture"
      ],
      [
        "ĠDe",
        "velop"
      ],
      [
        "ĠS",
        "h"
      ],
      [
        "Ġf",
        "am"
      ],
      [
        "Ġpos",
        "s"
      ],
      [
        "ve",
        "ment"
      ],
      [
        "Ġbenef",
        "its"
      ],
      [
        "er",
        "tain"
      ],
      [
        "Ġde",
        "p"
      ],
      [
        "Ġreg",
        "arding"
      ],
      [
        "ĠP",
        "l"
      ],
      [
        "Ġex",
        "c"
      ],
      [
        "Ġexam",
        "ple"
      ],
      [
        "Ġbe",
        "fore"
      ],
      [
        "II",
        "I"
      ],
      [
        "Ġpl",
        "an"
      ],
      [
        "ce",
        "pt"
      ],
      [
        "In",
        "troduction"
      ],
      [
        "an",
        "ge"
      ],
      [
        "ĠEx",
        "am"
      ],
      [
        "Ġprom",
        "o"
      ],
      [
        "Ġb",
        "r"
      ],
      [
        "dition",
        "ally"
      ],
      [
        "Ġe",
        "ffor"
      ],
      [
        "or",
        "ical"
      ],
      [
        "Ġcons",
        "ist"
      ],
      [
        "Ġl",
        "o"
      ],
      [
        "Ġid",
        "entif"
      ],
      [
        "Ġs",
        "elf"
      ],
      [
        "Ġinform",
        "ation"
      ],
      [
        "Ġknow",
        "ledge"
      ],
      [
        "Ġpre",
        "v"
      ],
      [
        "t",
        "e"
      ],
      [
        "Ġdivers",
        "e"
      ],
      [
        "Ġen",
        "d"
      ],
      [
        "et",
        "her"
      ],
      [
        "ur",
        "ity"
      ],
      [
        "Ġde",
        "f"
      ],
      [
        "ust",
        "ain"
      ],
      [
        "ĠSt",
        "r"
      ],
      [
        "ell",
        "ing"
      ],
      [
        "Ġsever",
        "al"
      ],
      [
        "i",
        "an"
      ],
      [
        "Ġeduc",
        "ation"
      ],
      [
        "re",
        "h"
      ],
      [
        "Ġrep",
        "res"
      ],
      [
        "ĠT",
        "r"
      ],
      [
        "Ġto",
        "ols"
      ],
      [
        "Ġw",
        "ell"
      ],
      [
        "Ġassoci",
        "ated"
      ],
      [
        "ar",
        "ch"
      ],
      [
        "ci",
        "ples"
      ],
      [
        "u",
        "g"
      ],
      [
        "am",
        "p"
      ],
      [
        "Ġop",
        "en"
      ],
      [
        "0",
        "0"
      ],
      [
        "th",
        "e"
      ],
      [
        "Con",
        "clusion"
      ],
      [
        "Ġinc",
        "orpor"
      ],
      [
        "Ġapp",
        "reci"
      ],
      [
        "Ġc",
        "ri"
      ],
      [
        "Ġest",
        "ablish"
      ],
      [
        "er",
        "c"
      ],
      [
        "Ġag",
        "ain"
      ],
      [
        "Ġd",
        "ire"
      ],
      [
        "Ġcomp",
        "an"
      ],
      [
        "i",
        "x"
      ],
      [
        "a",
        "pp"
      ],
      [
        "âĢ",
        "Ķ"
      ],
      [
        "Ġsignificant",
        "ly"
      ],
      [
        "Ġcre",
        "ating"
      ],
      [
        "il",
        "it"
      ],
      [
        "Ġa",
        "ff"
      ],
      [
        "Ġem",
        "o"
      ],
      [
        "on",
        "str"
      ],
      [
        "Ġconn",
        "ec"
      ],
      [
        "Ġon",
        "ly"
      ],
      [
        "W",
        "h"
      ],
      [
        "ar",
        "get"
      ],
      [
        "Ġf",
        "ound"
      ],
      [
        "Ġcompon",
        "ents"
      ],
      [
        "ati",
        "ves"
      ],
      [
        "Ġinst",
        "ance"
      ],
      [
        "anc",
        "ial"
      ],
      [
        "Ġtra",
        "ditional"
      ],
      [
        "Ġgu",
        "id"
      ],
      [
        "Ġon",
        "line"
      ],
      [
        "uc",
        "h"
      ],
      [
        "n",
        "er"
      ],
      [
        "Ġele",
        "ments"
      ],
      [
        "at",
        "ors"
      ],
      [
        "Ġh",
        "and"
      ],
      [
        "Ġd",
        "ri"
      ],
      [
        "Ġa",
        "uth"
      ],
      [
        "Ġplatform",
        "s"
      ],
      [
        "Ġl",
        "ife"
      ],
      [
        "ra",
        "f"
      ],
      [
        "Ġm",
        "ake"
      ],
      [
        "ĠD",
        "es"
      ],
      [
        "ĠO",
        "ver"
      ],
      [
        "d",
        "u"
      ],
      [
        "Ġvis",
        "ual"
      ],
      [
        "om",
        "m"
      ],
      [
        "Ġqu",
        "ality"
      ],
      [
        "Ġneed",
        "s"
      ],
      [
        "ands",
        "c"
      ],
      [
        "Ġmaintain",
        "ing"
      ],
      [
        "as",
        "h"
      ],
      [
        "Ġd",
        "i"
      ],
      [
        "Ġc",
        "ase"
      ],
      [
        "emb",
        "er"
      ],
      [
        "Ġb",
        "et"
      ],
      [
        "Ġrelations",
        "hips"
      ],
      [
        "Ġa",
        "udi"
      ],
      [
        "Ġpartic",
        "ular"
      ],
      [
        "ĠC",
        "ol"
      ],
      [
        "Ġbusiness",
        "es"
      ],
      [
        "Ġc",
        "ent"
      ],
      [
        "Ġmin",
        "im"
      ],
      [
        "ĠĠ",
        "ĠĠ"
      ],
      [
        "re",
        "am"
      ],
      [
        "ac",
        "tion"
      ],
      [
        "Ġset",
        "ting"
      ],
      [
        "ĠAn",
        "al"
      ],
      [
        "al",
        "ing"
      ],
      [
        "St",
        "ep"
      ],
      [
        "Ġc",
        "ost"
      ],
      [
        "en",
        "se"
      ],
      [
        "p",
        "tion"
      ],
      [
        "Ġallow",
        "s"
      ],
      [
        "ur",
        "n"
      ],
      [
        "Ġtw",
        "o"
      ],
      [
        "A",
        "s"
      ],
      [
        "Ġu",
        "nderstand"
      ],
      [
        "Ġal",
        "ong"
      ],
      [
        "om",
        "es"
      ],
      [
        "Ġimp",
        "lement"
      ],
      [
        "Ġph",
        "ys"
      ],
      [
        "y",
        "ond"
      ],
      [
        "Ġbe",
        "yond"
      ],
      [
        "or",
        "ld"
      ],
      [
        "Ġreg",
        "ul"
      ],
      [
        "Ġagain",
        "st"
      ],
      [
        "ro",
        "ad"
      ],
      [
        "Ġme",
        "an"
      ],
      [
        "Ġp",
        "ati"
      ],
      [
        "Ġ",
        "3"
      ],
      [
        "i",
        "er"
      ],
      [
        "j",
        "ect"
      ],
      [
        "in",
        "ed"
      ],
      [
        "Ġj",
        "ourn"
      ],
      [
        "erg",
        "y"
      ],
      [
        "Ġstr",
        "uc"
      ],
      [
        "Ġcommun",
        "ity"
      ],
      [
        "Ġc",
        "ar"
      ],
      [
        "ĠT",
        "o"
      ],
      [
        "Ġus",
        "ers"
      ],
      [
        "Ġad",
        "ap"
      ],
      [
        "Ġdem",
        "onstr"
      ],
      [
        "Ġme",
        "as"
      ],
      [
        "Ġn",
        "avig"
      ],
      [
        "Ġto",
        "day"
      ],
      [
        "h",
        "ie"
      ],
      [
        "yn",
        "am"
      ],
      [
        "ĠWh",
        "ile"
      ],
      [
        "Ġres",
        "ul"
      ],
      [
        "ĠCon",
        "t"
      ],
      [
        "Ġcontribut",
        "e"
      ],
      [
        "Ġenc",
        "oura"
      ],
      [
        "Ġs",
        "oci"
      ],
      [
        "Ġac",
        "hie"
      ],
      [
        "Ġto",
        "p"
      ],
      [
        "Ġimp",
        "ortance"
      ],
      [
        "Ġpres",
        "ent"
      ],
      [
        "Ġl",
        "im"
      ],
      [
        "Ġman",
        "ufact"
      ],
      [
        "ĠT",
        "ra"
      ],
      [
        "ĠCom",
        "p"
      ],
      [
        "Ġcont",
        "ent"
      ],
      [
        "Ġd",
        "own"
      ],
      [
        "ĠAd",
        "ditionally"
      ],
      [
        "Ġus",
        "er"
      ],
      [
        "Ġhigh",
        "l"
      ],
      [
        "is",
        "ts"
      ],
      [
        "pl",
        "ications"
      ],
      [
        "ĠR",
        "es"
      ],
      [
        "ĠM",
        "oreover"
      ],
      [
        "Ġeng",
        "agement"
      ],
      [
        "ĠL",
        "et"
      ],
      [
        "Ġindust",
        "ry"
      ],
      [
        "Ġl",
        "andsc"
      ],
      [
        "Ġs",
        "ustain"
      ],
      [
        "Ġcom",
        "b"
      ],
      [
        "Ġchar",
        "acter"
      ],
      [
        "v",
        "ity"
      ],
      [
        "ad",
        "e"
      ],
      [
        "Ġg",
        "ra"
      ],
      [
        "Ġpr",
        "im"
      ],
      [
        "Ġbet",
        "ter"
      ],
      [
        "Ġcomp",
        "e"
      ],
      [
        "Ġre",
        "lev"
      ],
      [
        "Ġb",
        "el"
      ],
      [
        "Ġcult",
        "ural"
      ],
      [
        "Ġg",
        "over"
      ],
      [
        "Ġexpl",
        "oring"
      ],
      [
        "Ġf",
        "irst"
      ],
      [
        "tim",
        "ately"
      ],
      [
        "e",
        "e"
      ],
      [
        "Ġhum",
        "an"
      ],
      [
        "Ġprocess",
        "es"
      ],
      [
        "ac",
        "es"
      ],
      [
        "Ġp",
        "ers"
      ],
      [
        "en",
        "e"
      ],
      [
        "Ġmod",
        "ern"
      ],
      [
        "Ġtrans",
        "form"
      ],
      [
        "r",
        "it"
      ],
      [
        "ĠD",
        "is"
      ],
      [
        "Ġbe",
        "en"
      ],
      [
        "Ġ20",
        "1"
      ],
      [
        "Ġprin",
        "ciples"
      ],
      [
        "Ġval",
        "u"
      ],
      [
        "Ġde",
        "v"
      ],
      [
        "ot",
        "e"
      ],
      [
        "em",
        "por"
      ],
      [
        "ĠEx",
        "pl"
      ],
      [
        "Ġp",
        "ass"
      ],
      [
        "Ġincre",
        "asing"
      ],
      [
        "w",
        "are"
      ],
      [
        "l",
        "l"
      ],
      [
        "Ġre",
        "ad"
      ],
      [
        "Ġenh",
        "ance"
      ],
      [
        "c",
        "ed"
      ],
      [
        "ak",
        "es"
      ],
      [
        "fer",
        "ences"
      ],
      [
        "ĠP",
        "rac"
      ],
      [
        "Ġorganiz",
        "ations"
      ],
      [
        "Ġe",
        "t"
      ],
      [
        "ĠR",
        "ec"
      ],
      [
        "Ġu",
        "til"
      ],
      [
        "Ġa",
        "ut"
      ],
      [
        "ar",
        "ing"
      ],
      [
        "Ġsaf",
        "ety"
      ],
      [
        "Ġb",
        "al"
      ],
      [
        "u",
        "p"
      ],
      [
        "ĠD",
        "ef"
      ],
      [
        "is",
        "ions"
      ],
      [
        "ĠT",
        "echn"
      ],
      [
        "Ġcomm",
        "it"
      ],
      [
        "Ġp",
        "at"
      ],
      [
        "r",
        "ation"
      ],
      [
        "Ġus",
        "ed"
      ],
      [
        "Ġpol",
        "i"
      ],
      [
        "in",
        "al"
      ],
      [
        "Ġcomp",
        "reh"
      ],
      [
        "Ġcontin",
        "u"
      ],
      [
        "Ġapplic",
        "ations"
      ],
      [
        "ress",
        "ion"
      ],
      [
        "Ġspec",
        "ific"
      ],
      [
        "Ġman",
        "y"
      ],
      [
        "Ġconc",
        "ern"
      ],
      [
        "Ġt",
        "arget"
      ],
      [
        "Ġmulti",
        "ple"
      ],
      [
        "id",
        "ence"
      ],
      [
        "Ġmethod",
        "s"
      ],
      [
        "Ġfocus",
        "ing"
      ],
      [
        "olog",
        "ies"
      ],
      [
        "Ġinves",
        "t"
      ],
      [
        "oo",
        "king"
      ],
      [
        "Ġbec",
        "ome"
      ],
      [
        "Ġs",
        "it"
      ],
      [
        "ob",
        "al"
      ],
      [
        "Ġstr",
        "ength"
      ],
      [
        "i",
        "ec"
      ],
      [
        "enc",
        "ies"
      ],
      [
        "ri",
        "es"
      ],
      [
        "Ġt",
        "ail"
      ],
      [
        "Ġstud",
        "y"
      ],
      [
        "ĠO",
        "n"
      ],
      [
        "Ġt",
        "ake"
      ],
      [
        "ati",
        "s"
      ],
      [
        "m",
        "ore"
      ],
      [
        "ph",
        "as"
      ],
      [
        "p",
        "os"
      ],
      [
        "ĠC",
        "l"
      ],
      [
        "lec",
        "ting"
      ],
      [
        "Ġlead",
        "ing"
      ],
      [
        "T",
        "o"
      ],
      [
        "is",
        "tic"
      ],
      [
        "Ġsur",
        "round"
      ],
      [
        "ar",
        "s"
      ],
      [
        "Ġfe",
        "atures"
      ],
      [
        "Ġval",
        "ue"
      ],
      [
        "ĠI",
        "nd"
      ],
      [
        "Ġrequir",
        "es"
      ],
      [
        "in",
        "ary"
      ],
      [
        "ĠS",
        "o"
      ],
      [
        "Ġlevel",
        "s"
      ],
      [
        "Ġpartic",
        "ip"
      ],
      [
        "Ġcons",
        "um"
      ],
      [
        "Ġspec",
        "ial"
      ],
      [
        "Ġy",
        "ear"
      ],
      [
        "t",
        "ers"
      ],
      [
        "ech",
        "an"
      ],
      [
        "a",
        "u"
      ],
      [
        "o",
        "ot"
      ],
      [
        "Ġc",
        "or"
      ],
      [
        "Ġj",
        "ust"
      ],
      [
        "Ġinvol",
        "ves"
      ],
      [
        "ĠStr",
        "ateg"
      ],
      [
        "ter",
        "m"
      ],
      [
        "es",
        "ts"
      ],
      [
        "ĠH",
        "e"
      ],
      [
        "Ġar",
        "t"
      ],
      [
        "urther",
        "more"
      ],
      [
        "Ġfin",
        "ancial"
      ],
      [
        "Ġc",
        "ul"
      ],
      [
        "Ġsee",
        "king"
      ],
      [
        "Ġpop",
        "ular"
      ],
      [
        "Ġb",
        "est"
      ],
      [
        "ire",
        "d"
      ],
      [
        "Ġb",
        "rand"
      ],
      [
        "Ġav",
        "ail"
      ],
      [
        "Ġdo",
        "es"
      ],
      [
        "ti",
        "f"
      ],
      [
        "Ġeffec",
        "tive"
      ],
      [
        "th",
        "ers"
      ],
      [
        "Ġsh",
        "ow"
      ],
      [
        "Ġrec",
        "ogn"
      ],
      [
        "Ġsh",
        "ap"
      ],
      [
        "ra",
        "w"
      ],
      [
        "o",
        "id"
      ],
      [
        "S",
        "ection"
      ],
      [
        "empor",
        "ary"
      ],
      [
        "Ġpromo",
        "ting"
      ],
      [
        "Ġop",
        "tions"
      ],
      [
        "ro",
        "p"
      ],
      [
        "jec",
        "ts"
      ],
      [
        "Ġmaterial",
        "s"
      ],
      [
        "Ġev",
        "ol"
      ],
      [
        "ar",
        "ra"
      ],
      [
        "Ġeffec",
        "tively"
      ],
      [
        "ĠO",
        "ne"
      ],
      [
        "p",
        "re"
      ],
      [
        "Ġpri",
        "v"
      ],
      [
        "rac",
        "ing"
      ],
      [
        "Ġdire",
        "ct"
      ],
      [
        "Ġallow",
        "ing"
      ],
      [
        "Ġfollow",
        "ing"
      ],
      [
        "Ġm",
        "ost"
      ],
      [
        "se",
        "qu"
      ],
      [
        "iti",
        "z"
      ],
      [
        "Ġmus",
        "ic"
      ],
      [
        "r",
        "al"
      ],
      [
        "Ġproduc",
        "ts"
      ],
      [
        "Ġth",
        "ough"
      ],
      [
        "er",
        "y"
      ],
      [
        "el",
        "ves"
      ],
      [
        "s",
        "elf"
      ],
      [
        "Ġext",
        "ract"
      ],
      [
        "Ġcomm",
        "on"
      ],
      [
        "Ġtr",
        "ust"
      ],
      [
        "ar",
        "i"
      ],
      [
        "Ġf",
        "il"
      ],
      [
        "Ġmed",
        "ia"
      ],
      [
        "Ġd",
        "ynam"
      ],
      [
        "Ġeffor",
        "ts"
      ],
      [
        "is",
        "ing"
      ],
      [
        "Ġcon",
        "ditions"
      ],
      [
        "ful",
        "ly"
      ],
      [
        "Ġproduc",
        "t"
      ],
      [
        "Ġf",
        "ul"
      ],
      [
        "V",
        "I"
      ],
      [
        "Ġcri",
        "tical"
      ],
      [
        "or",
        "ation"
      ],
      [
        "ĠR",
        "eg"
      ],
      [
        "our",
        "ce"
      ],
      [
        "Ġb",
        "road"
      ],
      [
        "Ġprovid",
        "es"
      ],
      [
        "Ġg",
        "re"
      ],
      [
        "Ġjourn",
        "ey"
      ],
      [
        "ra",
        "ms"
      ],
      [
        "Ġst",
        "y"
      ],
      [
        "in",
        "k"
      ],
      [
        "is",
        "ting"
      ],
      [
        "Ġvalu",
        "able"
      ],
      [
        "Ġdel",
        "iver"
      ],
      [
        "Ġs",
        "ens"
      ],
      [
        "Ġst",
        "ep"
      ],
      [
        "Ġinform",
        "ed"
      ],
      [
        "Ġnecess",
        "ary"
      ],
      [
        "el",
        "ines"
      ],
      [
        "Ġ",
        "ill"
      ],
      [
        "Ġn",
        "etw"
      ],
      [
        "Ġg",
        "rou"
      ],
      [
        "Ġt",
        "er"
      ],
      [
        "ĠI",
        "d"
      ],
      [
        "Ġp",
        "oin"
      ],
      [
        "Ġtr",
        "ends"
      ],
      [
        "ĠB",
        "e"
      ],
      [
        "Ġint",
        "ric"
      ],
      [
        "Ġv",
        "ers"
      ],
      [
        "Ġstr",
        "ong"
      ],
      [
        "Ġconnec",
        "tions"
      ],
      [
        "ac",
        "tions"
      ],
      [
        "av",
        "ing"
      ],
      [
        "ĠP",
        "re"
      ],
      [
        "er",
        "ic"
      ],
      [
        "Ġanal",
        "yz"
      ],
      [
        "Ġsol",
        "utions"
      ],
      [
        "or",
        "ks"
      ],
      [
        "du",
        "ce"
      ],
      [
        "en",
        "ing"
      ],
      [
        "Ġbeh",
        "av"
      ],
      [
        "Ġrepres",
        "ent"
      ],
      [
        "Ġ",
        "Q"
      ],
      [
        "ĠF",
        "urthermore"
      ],
      [
        "if",
        "ically"
      ],
      [
        "g",
        "o"
      ],
      [
        "Ġhealth",
        "care"
      ],
      [
        "ur",
        "r"
      ],
      [
        "ĠM",
        "arket"
      ],
      [
        "at",
        "ory"
      ],
      [
        "ĠC",
        "ase"
      ],
      [
        "Ġare",
        "as"
      ],
      [
        "Ġ",
        "ide"
      ],
      [
        "ĠCon",
        "clusion"
      ],
      [
        "Ġt",
        "reat"
      ],
      [
        "ten",
        "tion"
      ],
      [
        "as",
        "on"
      ],
      [
        "Ġconcern",
        "s"
      ],
      [
        "um",
        "b"
      ],
      [
        "Ġemp",
        "ower"
      ],
      [
        ":",
        "**"
      ],
      [
        "Ġev",
        "ents"
      ],
      [
        "Ġ",
        "es"
      ],
      [
        "Ġen",
        "ergy"
      ],
      [
        "com",
        "es"
      ],
      [
        "i",
        "tions"
      ],
      [
        "Ġdec",
        "ision"
      ],
      [
        "c",
        "c"
      ],
      [
        "os",
        "ing"
      ],
      [
        "ar",
        "ies"
      ],
      [
        "Ġu",
        "pon"
      ],
      [
        "ec",
        "ting"
      ],
      [
        "ail",
        "s"
      ],
      [
        "Ġpat",
        "tern"
      ],
      [
        "Ġn",
        "umer"
      ],
      [
        "al",
        "e"
      ],
      [
        "Ġow",
        "n"
      ],
      [
        "Ġcommun",
        "ities"
      ],
      [
        "Ġa",
        "fter"
      ],
      [
        "Ġo",
        "thers"
      ],
      [
        "con",
        "om"
      ],
      [
        "Ġres",
        "t"
      ],
      [
        "Ġenh",
        "ancing"
      ],
      [
        "Ġl",
        "aw"
      ],
      [
        "Ġactiv",
        "ities"
      ],
      [
        "h",
        "ing"
      ],
      [
        "a",
        "tic"
      ],
      [
        "Ġg",
        "r"
      ],
      [
        "ti",
        "g"
      ],
      [
        "Ġcustom",
        "er"
      ],
      [
        "Ġm",
        "en"
      ],
      [
        "Ġm",
        "ental"
      ],
      [
        "Ġarti",
        "st"
      ],
      [
        "Ġv",
        "iew"
      ],
      [
        "--------",
        "--------"
      ],
      [
        "ĠO",
        "r"
      ],
      [
        "Ġal",
        "tern"
      ],
      [
        "g",
        "round"
      ],
      [
        "ĠCons",
        "ider"
      ],
      [
        "an",
        "e"
      ],
      [
        "ĠA",
        "ss"
      ],
      [
        "ĠThe",
        "y"
      ],
      [
        "Ġwh",
        "y"
      ],
      [
        "ĠCh",
        "ris"
      ],
      [
        "Ġl",
        "ess"
      ],
      [
        "on",
        "es"
      ],
      [
        "ra",
        "in"
      ],
      [
        "Ġsurround",
        "ing"
      ],
      [
        "os",
        "s"
      ],
      [
        "Ġadap",
        "t"
      ],
      [
        "Ġev",
        "alu"
      ],
      [
        "Ġcl",
        "ass"
      ],
      [
        "i",
        "um"
      ],
      [
        "b",
        "y"
      ],
      [
        "m",
        "ing"
      ],
      [
        "Ġbe",
        "ing"
      ],
      [
        "Ġbuil",
        "ding"
      ],
      [
        "Ġc",
        "aus"
      ],
      [
        "p",
        "ite"
      ],
      [
        "at",
        "ural"
      ],
      [
        "Ġprovid",
        "ed"
      ],
      [
        "Ġl",
        "ar"
      ],
      [
        "ual",
        "ly"
      ],
      [
        "Ġincorpor",
        "ating"
      ],
      [
        "y",
        "m"
      ],
      [
        "Ġout",
        "comes"
      ],
      [
        "Ġp",
        "ost"
      ],
      [
        "b",
        "e"
      ],
      [
        "Ġn",
        "arra"
      ],
      [
        "o",
        "le"
      ],
      [
        "ab",
        "ilities"
      ],
      [
        "Ġphys",
        "ical"
      ],
      [
        "ur",
        "y"
      ],
      [
        "Ġdel",
        "ve"
      ],
      [
        "Ġfac",
        "ilit"
      ],
      [
        "Ġtail",
        "ored"
      ],
      [
        "il",
        "ar"
      ],
      [
        "Ġens",
        "ures"
      ],
      [
        "Ġgover",
        "n"
      ],
      [
        "y",
        "stem"
      ],
      [
        "Ġm",
        "echan"
      ],
      [
        "Ġprofession",
        "als"
      ],
      [
        "ĠP",
        "h"
      ],
      [
        "Ġse",
        "em"
      ],
      [
        "Ġrelev",
        "ant"
      ],
      [
        "ĠChris",
        "ti"
      ],
      [
        "Ġ",
        "ve"
      ],
      [
        "p",
        "ri"
      ],
      [
        "Ġdec",
        "isions"
      ],
      [
        "Ġp",
        "iec"
      ],
      [
        "Ġmean",
        "ing"
      ],
      [
        "Ġcompe",
        "ti"
      ],
      [
        "Ġnumer",
        "ous"
      ],
      [
        "Ġint",
        "ro"
      ],
      [
        "p",
        "r"
      ],
      [
        "Ġv",
        "ia"
      ],
      [
        "Ġf",
        "ield"
      ],
      [
        "ul",
        "ation"
      ],
      [
        "ĠAm",
        "eric"
      ],
      [
        "Ġst",
        "ory"
      ],
      [
        "Ġcur",
        "r"
      ],
      [
        "Ġgl",
        "obal"
      ],
      [
        "ĠEn",
        "c"
      ],
      [
        "Ġ",
        "4"
      ],
      [
        "in",
        "ating"
      ],
      [
        "av",
        "or"
      ],
      [
        "Ġm",
        "ind"
      ],
      [
        "Ġanal",
        "ysis"
      ],
      [
        "Ġdesign",
        "ed"
      ],
      [
        "i",
        "od"
      ],
      [
        "Ġsec",
        "urity"
      ],
      [
        "'",
        "re"
      ],
      [
        "for",
        "t"
      ],
      [
        "Ġf",
        "und"
      ],
      [
        "p",
        "ort"
      ],
      [
        "Ġenab",
        "les"
      ],
      [
        "pec",
        "tive"
      ],
      [
        "Ġval",
        "ues"
      ],
      [
        "Ġcl",
        "i"
      ],
      [
        "iv",
        "es"
      ],
      [
        "Ġm",
        "aking"
      ],
      [
        "Ġre",
        "t"
      ],
      [
        "Ġlear",
        "n"
      ],
      [
        "Ġcon",
        "clusion"
      ],
      [
        "Ġintern",
        "ational"
      ],
      [
        "Ġhist",
        "orical"
      ],
      [
        "Ġeng",
        "age"
      ],
      [
        "Ġem",
        "phas"
      ],
      [
        "ic",
        "ial"
      ],
      [
        "Ġlim",
        "it"
      ],
      [
        "a",
        "z"
      ],
      [
        "re",
        "di"
      ],
      [
        "op",
        "le"
      ],
      [
        "Ġser",
        "ve"
      ],
      [
        "emb",
        "ers"
      ],
      [
        "Ġcollabor",
        "ation"
      ],
      [
        "Ġqu",
        "es"
      ],
      [
        "Ġr",
        "ates"
      ],
      [
        "ĠP",
        "er"
      ],
      [
        "Ġs",
        "al"
      ],
      [
        "or",
        "es"
      ],
      [
        "Ġincre",
        "ased"
      ],
      [
        "Ġres",
        "ili"
      ],
      [
        "Ġlead",
        "ers"
      ],
      [
        "Ġe",
        "ar"
      ],
      [
        "Ġ",
        "ing"
      ],
      [
        "Ġyour",
        "self"
      ],
      [
        "as",
        "c"
      ],
      [
        "Ġsu",
        "g"
      ],
      [
        "Ġw",
        "ay"
      ],
      [
        "Ġfost",
        "er"
      ],
      [
        "Ġimpro",
        "ve"
      ],
      [
        "Ġpro",
        "duction"
      ],
      [
        "Ġal",
        "ign"
      ],
      [
        "ĠWh",
        "en"
      ],
      [
        "Ġh",
        "ome"
      ],
      [
        "Ġ",
        "ul"
      ],
      [
        "Ġcon",
        "cept"
      ],
      [
        "am",
        "es"
      ],
      [
        "Ġus",
        "e"
      ],
      [
        "ĠK",
        "ey"
      ],
      [
        "Ġan",
        "other"
      ],
      [
        "Ġass",
        "ess"
      ],
      [
        "ĠS",
        "e"
      ],
      [
        "Ġc",
        "raf"
      ],
      [
        "ac",
        "ks"
      ],
      [
        "od",
        "y"
      ],
      [
        "ĠP",
        "ol"
      ],
      [
        "re",
        "d"
      ],
      [
        "b",
        "r"
      ],
      [
        "ast",
        "s"
      ],
      [
        "Ġth",
        "er"
      ],
      [
        "Ġcl",
        "os"
      ],
      [
        "Ġs",
        "w"
      ],
      [
        "Ġv",
        "ital"
      ],
      [
        "Ġd",
        "ive"
      ],
      [
        "at",
        "s"
      ],
      [
        "h",
        "old"
      ],
      [
        "Ġpattern",
        "s"
      ],
      [
        "b",
        "all"
      ],
      [
        "Ġinnov",
        "ation"
      ],
      [
        "Ġl",
        "ay"
      ],
      [
        "Ġaut",
        "om"
      ],
      [
        "le",
        "x"
      ],
      [
        "ĠA",
        "t"
      ],
      [
        "b",
        "ack"
      ],
      [
        "Ġt",
        "al"
      ],
      [
        "Ġavail",
        "able"
      ],
      [
        "Ġsh",
        "ould"
      ],
      [
        "Ġpr",
        "ess"
      ],
      [
        "Ġsc",
        "en"
      ],
      [
        "ant",
        "ages"
      ],
      [
        "is",
        "es"
      ],
      [
        "Ġprog",
        "rams"
      ],
      [
        "i",
        "k"
      ],
      [
        "Ġaddress",
        "ing"
      ],
      [
        "i",
        "pp"
      ],
      [
        "Ġst",
        "ate"
      ],
      [
        "Ġacc",
        "ur"
      ],
      [
        "ang",
        "u"
      ],
      [
        "ach",
        "ing"
      ],
      [
        "Ġso",
        "ft"
      ],
      [
        "Ġch",
        "ild"
      ],
      [
        "c",
        "ri"
      ],
      [
        "s",
        "ing"
      ],
      [
        "Ġplay",
        "s"
      ],
      [
        "oun",
        "ter"
      ],
      [
        "Ġpri",
        "or"
      ],
      [
        "o",
        "f"
      ],
      [
        "Ġlandsc",
        "ape"
      ],
      [
        "u",
        "tical"
      ],
      [
        "iss",
        "ion"
      ],
      [
        "ic",
        "t"
      ],
      [
        "Ġcon",
        "ven"
      ],
      [
        "Ġhel",
        "ps"
      ],
      [
        "Ġgo",
        "als"
      ],
      [
        "Ġfunc",
        "tional"
      ],
      [
        "Ġe",
        "l"
      ],
      [
        "Ġremain",
        "s"
      ],
      [
        "ĠM",
        "e"
      ],
      [
        "Ġn",
        "on"
      ],
      [
        "Ġplan",
        "ning"
      ],
      [
        "ace",
        "utical"
      ],
      [
        "Ġapp",
        "e"
      ],
      [
        "ar",
        "eness"
      ],
      [
        "Ġas",
        "pect"
      ],
      [
        "arm",
        "aceutical"
      ],
      [
        "ip",
        "s"
      ],
      [
        "o",
        "ol"
      ],
      [
        "igh",
        "ting"
      ],
      [
        "Ġc",
        "ertain"
      ],
      [
        "ĠEnc",
        "oura"
      ],
      [
        "r",
        "en"
      ],
      [
        "Ġprog",
        "ram"
      ],
      [
        "Ġfe",
        "el"
      ],
      [
        "r",
        "im"
      ],
      [
        "ast",
        "ing"
      ],
      [
        "Ġm",
        "embers"
      ],
      [
        "Ġw",
        "ater"
      ],
      [
        "Ġar",
        "ts"
      ],
      [
        "Ġm",
        "ar"
      ],
      [
        "Ġsit",
        "u"
      ],
      [
        "Ġy",
        "et"
      ],
      [
        "g",
        "er"
      ],
      [
        "i",
        "ance"
      ],
      [
        "Ġc",
        "ount"
      ],
      [
        "Ġpart",
        "ners"
      ],
      [
        "ĠStud",
        "y"
      ],
      [
        "Ġsignific",
        "ance"
      ],
      [
        "Ġst",
        "ay"
      ],
      [
        "Ġf",
        "re"
      ],
      [
        "cep",
        "ts"
      ],
      [
        "ect",
        "ed"
      ],
      [
        "Ġris",
        "ks"
      ],
      [
        "s",
        "y"
      ],
      [
        "F",
        "irst"
      ],
      [
        "ĠOver",
        "view"
      ],
      [
        "it",
        "es"
      ],
      [
        "Ġwh",
        "ether"
      ],
      [
        "âĢ",
        "Ļ"
      ],
      [
        "Ġd",
        "ed"
      ],
      [
        "Ġcult",
        "ure"
      ],
      [
        "Ġappro",
        "pri"
      ],
      [
        "h",
        "es"
      ],
      [
        "Ġrec",
        "ent"
      ],
      [
        "Ġsk",
        "in"
      ],
      [
        "#",
        "#"
      ],
      [
        "u",
        "id"
      ],
      [
        "Ġinnov",
        "ative"
      ],
      [
        "w",
        "ays"
      ],
      [
        "Ġsh",
        "ared"
      ],
      [
        "ous",
        "ly"
      ],
      [
        "Ġsy",
        "m"
      ],
      [
        "ir",
        "c"
      ],
      [
        "Ġsim",
        "ilar"
      ],
      [
        "oc",
        "u"
      ],
      [
        "tim",
        "e"
      ],
      [
        "ens",
        "ion"
      ],
      [
        "ap",
        "s"
      ],
      [
        "Ġe",
        "th"
      ],
      [
        "Ġn",
        "eg"
      ],
      [
        "Ġsupp",
        "or"
      ],
      [
        "Ġchan",
        "ge"
      ],
      [
        "Ġbec",
        "omes"
      ],
      [
        "Ġro",
        "b"
      ],
      [
        "Ġmeas",
        "ures"
      ],
      [
        "Ġinvol",
        "ved"
      ],
      [
        "Ġtyp",
        "es"
      ],
      [
        "Ġshap",
        "ing"
      ],
      [
        "Ġparticular",
        "ly"
      ],
      [
        "m",
        "aking"
      ],
      [
        "in",
        "ition"
      ],
      [
        "Ġo",
        "cc"
      ],
      [
        "Ġw",
        "as"
      ],
      [
        "ĠIn",
        "s"
      ],
      [
        "ĠS",
        "u"
      ],
      [
        "Ġeng",
        "aging"
      ],
      [
        "Ġh",
        "arm"
      ],
      [
        "Ġspec",
        "ifically"
      ],
      [
        "Ġpre",
        "ferences"
      ],
      [
        "Ġm",
        "em"
      ],
      [
        "ĠP",
        "ersonal"
      ],
      [
        "Ġst",
        "ri"
      ],
      [
        "Ġweb",
        "s"
      ],
      [
        "Ġmanufact",
        "uring"
      ],
      [
        "Ġe",
        "conom"
      ],
      [
        "Ġrequire",
        "ments"
      ],
      [
        "Ġacc",
        "ording"
      ],
      [
        "Ġpre",
        "c"
      ],
      [
        "Ġserv",
        "ice"
      ],
      [
        "j",
        "ust"
      ],
      [
        "ĠAc",
        "c"
      ],
      [
        "Ġcont",
        "emporary"
      ],
      [
        "ĠDevelop",
        "ment"
      ],
      [
        "Ġins",
        "tit"
      ],
      [
        "en",
        "tic"
      ],
      [
        "Ġstrateg",
        "ic"
      ],
      [
        "ĠComm",
        "un"
      ],
      [
        "end",
        "ed"
      ],
      [
        "Ġcompreh",
        "ensive"
      ],
      [
        "Ġbeh",
        "ind"
      ],
      [
        "Ġcle",
        "ar"
      ],
      [
        "w",
        "ard"
      ],
      [
        "ec",
        "tive"
      ],
      [
        "ĠIn",
        "t"
      ],
      [
        "Ġexam",
        "ining"
      ],
      [
        "Ġpe",
        "ople"
      ],
      [
        "ĠE",
        "v"
      ],
      [
        "ĠStrateg",
        "ies"
      ],
      [
        "Ġn",
        "atural"
      ],
      [
        "Ġpos",
        "itive"
      ],
      [
        "Ġul",
        "timately"
      ],
      [
        "Ġapplic",
        "ation"
      ],
      [
        "b",
        "ased"
      ],
      [
        "ĠH",
        "ist"
      ],
      [
        "in",
        "ce"
      ],
      [
        "Ġc",
        "over"
      ],
      [
        "w",
        "h"
      ],
      [
        "e",
        "per"
      ],
      [
        "Ġen",
        "j"
      ],
      [
        "Ġr",
        "ather"
      ],
      [
        "Ġf",
        "ood"
      ],
      [
        "Ġe",
        "arly"
      ],
      [
        "ax",
        "im"
      ],
      [
        "Ġ1",
        "9"
      ],
      [
        "Ġprac",
        "tice"
      ],
      [
        "atis",
        "f"
      ],
      [
        "Ġl",
        "ight"
      ],
      [
        "ic",
        "ate"
      ],
      [
        "Ġsp",
        "ir"
      ],
      [
        "K",
        "ey"
      ],
      [
        "ĠDes",
        "ign"
      ],
      [
        "Ġe",
        "lect"
      ],
      [
        "er",
        "ed"
      ],
      [
        "Ġs",
        "ci"
      ],
      [
        "go",
        "ing"
      ],
      [
        "pl",
        "ay"
      ],
      [
        "Ġb",
        "i"
      ],
      [
        "Ġg",
        "ame"
      ],
      [
        "Ġ",
        "5"
      ],
      [
        "Ġat",
        "tention"
      ],
      [
        "t",
        "ual"
      ],
      [
        "Ġtra",
        "ining"
      ],
      [
        "ĠM",
        "ed"
      ],
      [
        "Ġn",
        "e"
      ],
      [
        "iz",
        "es"
      ],
      [
        "Ġyear",
        "s"
      ],
      [
        "ĠS",
        "p"
      ],
      [
        "ment",
        "ation"
      ],
      [
        "e",
        "es"
      ],
      [
        "Ġtechn",
        "ologies"
      ],
      [
        "ĠChristi",
        "an"
      ],
      [
        "Ġd",
        "raw"
      ],
      [
        "Ġresul",
        "ts"
      ],
      [
        "ast",
        "e"
      ],
      [
        "Ġrespons",
        "ible"
      ],
      [
        "Ġex",
        "pect"
      ],
      [
        "o",
        "th"
      ],
      [
        "Ġapproach",
        "es"
      ],
      [
        "Ġen",
        "ti"
      ],
      [
        "Ġreg",
        "ular"
      ],
      [
        "Ġing",
        "redi"
      ],
      [
        "Ġn",
        "ature"
      ],
      [
        "Ġcom",
        "es"
      ],
      [
        "E",
        "x"
      ],
      [
        "sy",
        "ch"
      ],
      [
        "Ġem",
        "er"
      ],
      [
        "Ġleg",
        "al"
      ],
      [
        "u",
        "ts"
      ],
      [
        "ĠTr",
        "ans"
      ],
      [
        "Ġr",
        "ig"
      ],
      [
        "Ġcre",
        "d"
      ],
      [
        "Ġbuil",
        "d"
      ],
      [
        "Ġoptim",
        "al"
      ],
      [
        "Ġf",
        "oot"
      ],
      [
        "ili",
        "ar"
      ],
      [
        "Ġsh",
        "are"
      ],
      [
        "A",
        "n"
      ],
      [
        "Ġman",
        "aging"
      ],
      [
        "Ġris",
        "k"
      ],
      [
        "Ġbal",
        "ance"
      ],
      [
        "w",
        "orld"
      ],
      [
        "ĠIn",
        "ter"
      ],
      [
        "Ġthough",
        "t"
      ],
      [
        "Ġtim",
        "es"
      ],
      [
        "Ġresili",
        "ence"
      ],
      [
        "om",
        "et"
      ],
      [
        "Ġsm",
        "all"
      ],
      [
        "es",
        "ting"
      ],
      [
        "Ġt",
        "our"
      ],
      [
        "Ġreg",
        "ion"
      ],
      [
        "Th",
        "is"
      ],
      [
        "om",
        "s"
      ],
      [
        "Ġf",
        "eed"
      ],
      [
        "at",
        "ter"
      ],
      [
        "Ġdist",
        "in"
      ],
      [
        "is",
        "ms"
      ],
      [
        "Ġemo",
        "tional"
      ],
      [
        "Ġrob",
        "ust"
      ],
      [
        "Ġenviron",
        "mental"
      ],
      [
        "Ġexam",
        "ine"
      ],
      [
        "Ġmed",
        "ical"
      ],
      [
        "ut",
        "e"
      ],
      [
        "Ġim",
        "plications"
      ],
      [
        "Ġcon",
        "vers"
      ],
      [
        "Ġenab",
        "ling"
      ],
      [
        "Ġor",
        "ig"
      ],
      [
        "Ġenj",
        "oy"
      ],
      [
        "Ġbroad",
        "er"
      ],
      [
        "e",
        "le"
      ],
      [
        "ist",
        "ance"
      ],
      [
        "Ġin",
        "v"
      ],
      [
        "ĠF",
        "rom"
      ],
      [
        "Ġprog",
        "ress"
      ],
      [
        "Ġwor",
        "ks"
      ],
      [
        "m",
        "in"
      ],
      [
        "Ġad",
        "op"
      ],
      [
        "uil",
        "ding"
      ],
      [
        "Ġreduc",
        "ing"
      ],
      [
        "ĠHe",
        "alth"
      ],
      [
        "Ġpolic",
        "ies"
      ],
      [
        "pec",
        "ial"
      ],
      [
        "Ġc",
        "amp"
      ],
      [
        "om",
        "en"
      ],
      [
        "Ġp",
        "ain"
      ],
      [
        "Ġm",
        "ess"
      ],
      [
        "ĠS",
        "c"
      ],
      [
        "Ġprev",
        "ent"
      ],
      [
        "Ġab",
        "ility"
      ],
      [
        "ag",
        "n"
      ],
      [
        "Ġp",
        "ay"
      ],
      [
        "Ġam",
        "id"
      ],
      [
        "Ġcommit",
        "ment"
      ],
      [
        "ĠS",
        "im"
      ],
      [
        "it",
        "ual"
      ],
      [
        "pl",
        "if"
      ],
      [
        "op",
        "h"
      ],
      [
        "Ġv",
        "ide"
      ],
      [
        "Ġplay",
        "ers"
      ],
      [
        "tiv",
        "ity"
      ],
      [
        "Ġenviron",
        "ment"
      ],
      [
        "Ġhigh",
        "er"
      ],
      [
        "Ġme",
        "et"
      ],
      [
        "ĠF",
        "in"
      ],
      [
        "Ġcustom",
        "ers"
      ],
      [
        "ew",
        "el"
      ],
      [
        "Ġcomp",
        "ared"
      ],
      [
        "ul",
        "es"
      ],
      [
        "ip",
        "ment"
      ],
      [
        "Ġwor",
        "king"
      ],
      [
        "enc",
        "ed"
      ],
      [
        "Ġser",
        "ves"
      ],
      [
        "Ġto",
        "get"
      ],
      [
        "Ġtoget",
        "her"
      ],
      [
        "Ġeffici",
        "ency"
      ],
      [
        "Ġstud",
        "ies"
      ],
      [
        "Ġl",
        "angu"
      ],
      [
        "Ġde",
        "eper"
      ],
      [
        "Ġup",
        "d"
      ],
      [
        "Ġstruc",
        "t"
      ],
      [
        "ĠDef",
        "inition"
      ],
      [
        "Ġprofession",
        "al"
      ],
      [
        "p",
        "ro"
      ],
      [
        "Ġdisc",
        "over"
      ],
      [
        "Ġchan",
        "ges"
      ],
      [
        "Ġref",
        "ers"
      ],
      [
        "o",
        "ve"
      ],
      [
        "ĠP",
        "ar"
      ],
      [
        "Ġu",
        "nd"
      ],
      [
        "ĠImp",
        "ortance"
      ],
      [
        "ĠC",
        "re"
      ],
      [
        "Ġincreasing",
        "ly"
      ],
      [
        "ĠId",
        "entif"
      ],
      [
        "ur",
        "ance"
      ],
      [
        "ĠB",
        "l"
      ],
      [
        "or",
        "ous"
      ],
      [
        "t",
        "le"
      ],
      [
        "enc",
        "ing"
      ],
      [
        "Ġs",
        "atisf"
      ],
      [
        "Ġ",
        "er"
      ],
      [
        "Ġbehav",
        "ior"
      ],
      [
        "Ġid",
        "enti"
      ],
      [
        "ib",
        "r"
      ],
      [
        "Ġm",
        "y"
      ],
      [
        "Ġw",
        "ould"
      ],
      [
        "o",
        "ts"
      ],
      [
        "ĠG",
        "od"
      ],
      [
        "Ġl",
        "if"
      ],
      [
        "Ġcon",
        "struc"
      ],
      [
        "ati",
        "vity"
      ],
      [
        "em",
        "s"
      ],
      [
        "2",
        "0"
      ],
      [
        "ĠR",
        "ole"
      ],
      [
        "ĠM",
        "od"
      ],
      [
        "Ġf",
        "ind"
      ],
      [
        "Ġke",
        "ep"
      ],
      [
        "ĠE",
        "duc"
      ],
      [
        "Ġappropri",
        "ate"
      ],
      [
        "Ġr",
        "ich"
      ],
      [
        "Ġv",
        "ir"
      ],
      [
        "iv",
        "ed"
      ],
      [
        "ĠAnal",
        "ysis"
      ],
      [
        "Ġeduc",
        "ational"
      ],
      [
        "Ġdet",
        "erm"
      ],
      [
        "Ġper",
        "iod"
      ],
      [
        "Ġcurr",
        "ent"
      ],
      [
        "Ġcost",
        "s"
      ],
      [
        "Ġres",
        "ult"
      ],
      [
        "ult",
        "ural"
      ],
      [
        "Ġcompan",
        "ies"
      ],
      [
        "Ġm",
        "axim"
      ],
      [
        "Ġal",
        "ike"
      ],
      [
        "Ġc",
        "y"
      ],
      [
        "ĠAd",
        "v"
      ],
      [
        "Ġhist",
        "ory"
      ],
      [
        "o",
        "h"
      ],
      [
        "Ġenviron",
        "ments"
      ],
      [
        "d",
        "e"
      ],
      [
        "Ġt",
        "as"
      ],
      [
        "Ġpro",
        "jects"
      ],
      [
        "Ġt",
        "ri"
      ],
      [
        "Ġl",
        "ies"
      ],
      [
        "jec",
        "tives"
      ],
      [
        "Ġc",
        "irc"
      ],
      [
        "par",
        "t"
      ],
      [
        "Ġt",
        "em"
      ],
      [
        "Ġcon",
        "cepts"
      ],
      [
        "Ġm",
        "ade"
      ],
      [
        "Ġre",
        "ce"
      ],
      [
        "Ġe",
        "as"
      ],
      [
        "**",
        ":"
      ],
      [
        "a",
        "ign"
      ],
      [
        "N",
        "ow"
      ],
      [
        "Ġl",
        "ist"
      ],
      [
        "qu",
        "ality"
      ],
      [
        "ib",
        "ilities"
      ],
      [
        "or",
        "m"
      ],
      [
        "it",
        "er"
      ],
      [
        "Ġst",
        "ream"
      ],
      [
        "Ġadv",
        "ance"
      ],
      [
        "Ġem",
        "erg"
      ],
      [
        "od",
        "ay"
      ],
      [
        "Ġappreci",
        "ation"
      ],
      [
        "ed",
        "i"
      ],
      [
        "Ġknow",
        "n"
      ],
      [
        "Ġfor",
        "ms"
      ],
      [
        "Ġcol",
        "lec"
      ],
      [
        "Ġimp",
        "ort"
      ],
      [
        "ven",
        "tion"
      ],
      [
        "Ġr",
        "ight"
      ],
      [
        "Ġpower",
        "ful"
      ],
      [
        "Ġt",
        "ext"
      ],
      [
        "um",
        "m"
      ],
      [
        "Ġprim",
        "ary"
      ],
      [
        "Ġstrateg",
        "y"
      ],
      [
        "ĠMarket",
        "ing"
      ],
      [
        "ur",
        "s"
      ],
      [
        "ti",
        "se"
      ],
      [
        "h",
        "ic"
      ],
      [
        "in",
        "king"
      ],
      [
        "Ġr",
        "an"
      ],
      [
        "Ġsh",
        "if"
      ],
      [
        "ewel",
        "ry"
      ],
      [
        "am",
        "less"
      ],
      [
        "ust",
        "r"
      ],
      [
        "Ġthe",
        "ms"
      ],
      [
        "Ġiniti",
        "atives"
      ],
      [
        "Ġthems",
        "elves"
      ],
      [
        "Ġon",
        "es"
      ],
      [
        "ĠDis",
        "c"
      ],
      [
        "Ġstand",
        "ards"
      ],
      [
        "Ġex",
        "erc"
      ],
      [
        "Ġidentif",
        "y"
      ],
      [
        "ĠB",
        "usiness"
      ],
      [
        "en",
        "er"
      ],
      [
        "Ġro",
        "les"
      ],
      [
        "Ġrel",
        "i"
      ],
      [
        "Ġcon",
        "st"
      ],
      [
        "Ġcul",
        "tiv"
      ],
      [
        "Ġchallen",
        "ging"
      ],
      [
        "Ġad",
        "ditional"
      ],
      [
        "Ġstep",
        "s"
      ],
      [
        "Ġv",
        "ol"
      ],
      [
        "Ġmon",
        "it"
      ],
      [
        "Ġs",
        "ound"
      ],
      [
        "Ġemb",
        "racing"
      ],
      [
        "Ġvar",
        "i"
      ],
      [
        "ĠN",
        "ew"
      ],
      [
        "ap",
        "y"
      ],
      [
        "Ġac",
        "tion"
      ],
      [
        "ĠAmeric",
        "an"
      ],
      [
        "ast",
        "er"
      ],
      [
        "ous",
        "e"
      ],
      [
        "Ġon",
        "going"
      ],
      [
        "Ġsoft",
        "ware"
      ],
      [
        "Ġc",
        "all"
      ],
      [
        "Ġconsist",
        "ent"
      ],
      [
        "Ġe",
        "c"
      ],
      [
        "Ġmen",
        "tion"
      ],
      [
        "Ġpoli",
        "tical"
      ],
      [
        "Ġapp",
        "ear"
      ],
      [
        "Ġp",
        "ast"
      ],
      [
        "Ġde",
        "b"
      ],
      [
        "Ġpriv",
        "acy"
      ],
      [
        "end",
        "er"
      ],
      [
        "oin",
        "t"
      ],
      [
        "Ġto",
        "o"
      ],
      [
        "Ġf",
        "ram"
      ],
      [
        "Ġsh",
        "aring"
      ],
      [
        "Ġa",
        "ge"
      ],
      [
        "Ġf",
        "lex"
      ],
      [
        "Ġimpro",
        "ved"
      ],
      [
        "o",
        "x"
      ],
      [
        "Ġex",
        "isting"
      ],
      [
        "Ġsetting",
        "s"
      ],
      [
        "Ġinter",
        "est"
      ],
      [
        "Ġph",
        "armaceutical"
      ],
      [
        "Ġrig",
        "orous"
      ],
      [
        "Ġd",
        "am"
      ],
      [
        "ec",
        "k"
      ],
      [
        "ut",
        "ri"
      ],
      [
        "ĠS",
        "ec"
      ],
      [
        "erv",
        "ing"
      ],
      [
        "ial",
        "og"
      ],
      [
        "u",
        "ter"
      ],
      [
        "ĠT",
        "oday"
      ],
      [
        "o",
        "or"
      ],
      [
        "Ġc",
        "ross"
      ],
      [
        "id",
        "ent"
      ],
      [
        "Ġamid",
        "st"
      ],
      [
        "Ġcont",
        "ain"
      ],
      [
        "our",
        "s"
      ],
      [
        "in",
        "t"
      ],
      [
        "Ġs",
        "ources"
      ],
      [
        "Ġoper",
        "ations"
      ],
      [
        "Ġprom",
        "ote"
      ],
      [
        "Ġques",
        "tions"
      ],
      [
        "Ġpro",
        "ble"
      ],
      [
        "Ġse",
        "amless"
      ],
      [
        "Ġcare",
        "ful"
      ],
      [
        "Ġpro",
        "s"
      ],
      [
        "re",
        "ad"
      ],
      [
        "til",
        "l"
      ],
      [
        "Ġimport",
        "ant"
      ],
      [
        "Ġex",
        "ec"
      ],
      [
        "ra",
        "y"
      ],
      [
        "Ġet",
        "c"
      ],
      [
        "Ġad",
        "just"
      ],
      [
        "ten",
        "ance"
      ],
      [
        "Ġp",
        "erson"
      ],
      [
        "Ġsp",
        "ace"
      ],
      [
        "Ġpolic",
        "y"
      ],
      [
        "s",
        "c"
      ],
      [
        "em",
        "ic"
      ],
      [
        "B",
        "y"
      ],
      [
        "ul",
        "ations"
      ],
      [
        "Ġrelations",
        "hip"
      ],
      [
        "n",
        "els"
      ],
      [
        "Ġth",
        "ree"
      ],
      [
        "Ġshow",
        "c"
      ],
      [
        "Ġc",
        "ut"
      ],
      [
        "Ġp",
        "ath"
      ],
      [
        "ut",
        "y"
      ],
      [
        "ment",
        "ing"
      ],
      [
        "Ġauth",
        "entic"
      ],
      [
        "it",
        "ch"
      ],
      [
        "Ġtyp",
        "ically"
      ],
      [
        "or",
        "ough"
      ],
      [
        "Ġb",
        "ar"
      ],
      [
        "Ġscen",
        "ari"
      ],
      [
        "ish",
        "ing"
      ],
      [
        "Ġacc",
        "ount"
      ],
      [
        "is",
        "tics"
      ],
      [
        "Ġle",
        "ver"
      ],
      [
        "us",
        "ive"
      ],
      [
        "s",
        "ide"
      ],
      [
        "ĠIm",
        "ple"
      ],
      [
        "ĠU",
        "til"
      ],
      [
        "ake",
        "hold"
      ],
      [
        "Ġm",
        "om"
      ],
      [
        "ail",
        "y"
      ],
      [
        "r",
        "an"
      ],
      [
        "Ġ",
        "ver"
      ],
      [
        "Ġexp",
        "and"
      ],
      [
        "Ġl",
        "ives"
      ],
      [
        "ut",
        "es"
      ],
      [
        "d",
        "en"
      ],
      [
        "Ġachie",
        "ve"
      ],
      [
        "ry",
        "pt"
      ],
      [
        "ĠO",
        "p"
      ],
      [
        "Ġc",
        "ore"
      ],
      [
        "ĠEx",
        "per"
      ],
      [
        "or",
        "n"
      ],
      [
        "Ġpos",
        "ition"
      ],
      [
        "Ġd",
        "ocu"
      ],
      [
        "Ġpoin",
        "ts"
      ],
      [
        "Ġtrans",
        "port"
      ],
      [
        "u",
        "ing"
      ],
      [
        "Ġh",
        "y"
      ],
      [
        "ag",
        "ine"
      ],
      [
        "Ġintric",
        "ate"
      ],
      [
        "Ġartist",
        "s"
      ],
      [
        "tern",
        "al"
      ],
      [
        "Ġw",
        "r"
      ],
      [
        "es",
        "the"
      ],
      [
        "id",
        "es"
      ],
      [
        "Ġconsider",
        "ations"
      ],
      [
        "Ġempower",
        "ment"
      ],
      [
        "ĠE",
        "ff"
      ],
      [
        "for",
        "ce"
      ],
      [
        "Ġcon",
        "duc"
      ],
      [
        "Ġrequire",
        "d"
      ],
      [
        "Ġdev",
        "ices"
      ],
      [
        "'",
        "ll"
      ],
      [
        "Ġexpect",
        "ations"
      ],
      [
        "Ġcom",
        "fort"
      ],
      [
        "Ġinflu",
        "ence"
      ],
      [
        "Ġsustain",
        "able"
      ],
      [
        "Ġcle",
        "an"
      ],
      [
        "Ġarti",
        "s"
      ],
      [
        "Ġexp",
        "os"
      ],
      [
        "rib",
        "ution"
      ],
      [
        "ĠS",
        "ystem"
      ],
      [
        "Ġexpl",
        "oration"
      ],
      [
        "w",
        "ide"
      ],
      [
        "Ġcom",
        "pl"
      ],
      [
        "1",
        "9"
      ],
      [
        "d",
        "er"
      ],
      [
        "Ġaw",
        "areness"
      ],
      [
        "ĠP",
        "ower"
      ],
      [
        "Ġb",
        "ound"
      ],
      [
        "Ġaim",
        "ed"
      ],
      [
        "pl",
        "ace"
      ],
      [
        "Ġsub",
        "st"
      ],
      [
        "Ġback",
        "ground"
      ],
      [
        "ord",
        "s"
      ],
      [
        "ar",
        "ily"
      ],
      [
        "Ġdirect",
        "ly"
      ],
      [
        "ĠR",
        "em"
      ],
      [
        "ĠH",
        "igh"
      ],
      [
        "Ġc",
        "ater"
      ],
      [
        "Ġs",
        "ince"
      ],
      [
        "Ġsol",
        "id"
      ],
      [
        "ric",
        "s"
      ],
      [
        "Ġsh",
        "e"
      ],
      [
        "ĠC",
        "o"
      ],
      [
        "Ġv",
        "s"
      ],
      [
        "pir",
        "ing"
      ],
      [
        "us",
        "h"
      ],
      [
        "p",
        "ose"
      ],
      [
        "Ġrem",
        "ember"
      ],
      [
        "u",
        "x"
      ],
      [
        "Ġdem",
        "and"
      ],
      [
        "ĠMan",
        "agement"
      ],
      [
        "oo",
        "th"
      ],
      [
        "us",
        "i"
      ],
      [
        "Ġteam",
        "s"
      ],
      [
        "Ġdevelop",
        "ing"
      ],
      [
        "od",
        "e"
      ],
      [
        "Ġth",
        "en"
      ],
      [
        "Ġpl",
        "ace"
      ],
      [
        "ag",
        "ed"
      ],
      [
        "Ġpro",
        "ced"
      ],
      [
        "be",
        "ing"
      ],
      [
        "Ġm",
        "akes"
      ],
      [
        "le",
        "t"
      ],
      [
        "ĠIn",
        "st"
      ],
      [
        "Ġav",
        "oid"
      ],
      [
        "Ġcap",
        "abilities"
      ],
      [
        "f",
        "ace"
      ],
      [
        "ach",
        "es"
      ],
      [
        "Ġfunc",
        "tion"
      ],
      [
        "Ġbe",
        "g"
      ],
      [
        "Ġcre",
        "ativity"
      ],
      [
        "Ġaudi",
        "ences"
      ],
      [
        "Ġcontribut",
        "ing"
      ],
      [
        "Wh",
        "en"
      ],
      [
        "ĠB",
        "ut"
      ],
      [
        "ograph",
        "y"
      ],
      [
        "Ġadv",
        "anced"
      ],
      [
        "Ġqu",
        "ick"
      ],
      [
        "Ġre",
        "view"
      ],
      [
        "Ġl",
        "ook"
      ],
      [
        "Ġeng",
        "ine"
      ],
      [
        "Ġsec",
        "ure"
      ],
      [
        "Ġcamp",
        "aign"
      ],
      [
        "a",
        "j"
      ],
      [
        "Ġgrou",
        "ps"
      ],
      [
        "k",
        "now"
      ],
      [
        "Ġter",
        "ms"
      ],
      [
        "ese",
        "arch"
      ],
      [
        "Ġfam",
        "ily"
      ],
      [
        "Ġimplement",
        "ing"
      ],
      [
        "Ġequ",
        "ipment"
      ],
      [
        "p",
        "ass"
      ],
      [
        "Ġw",
        "ays"
      ],
      [
        "Ġoffer",
        "ing"
      ],
      [
        "Ġpre",
        "d"
      ],
      [
        "Ġingredi",
        "ents"
      ],
      [
        "Ġs",
        "ing"
      ],
      [
        "ĠE",
        "st"
      ],
      [
        "Ġnavig",
        "ate"
      ],
      [
        "tic",
        "ip"
      ],
      [
        "ĠImp",
        "act"
      ],
      [
        "ĠI",
        "f"
      ],
      [
        "Ġtreat",
        "ment"
      ],
      [
        "p",
        "id"
      ],
      [
        "ĠM",
        "us"
      ],
      [
        "Ġproper",
        "ty"
      ],
      [
        "Ġlangu",
        "age"
      ],
      [
        "Ġin",
        "j"
      ],
      [
        "Ġb",
        "as"
      ],
      [
        "ĠR",
        "el"
      ],
      [
        "ic",
        "ated"
      ],
      [
        "Ġd",
        "ialog"
      ],
      [
        "Ġf",
        "asc"
      ],
      [
        "Ġob",
        "s"
      ],
      [
        "Ġre",
        "le"
      ],
      [
        "Ġh",
        "ol"
      ],
      [
        "Ġcre",
        "ative"
      ],
      [
        "Ġen",
        "able"
      ],
      [
        "Ġve",
        "hic"
      ],
      [
        "ug",
        "g"
      ],
      [
        "Ġcli",
        "ents"
      ],
      [
        "Ġgre",
        "ater"
      ],
      [
        "Ġprot",
        "ection"
      ],
      [
        "Ġg",
        "e"
      ],
      [
        "Ġst",
        "akehold"
      ],
      [
        "ra",
        "ft"
      ],
      [
        "Ġev",
        "idence"
      ],
      [
        "Ġimpro",
        "vement"
      ],
      [
        "Ġpro",
        "ject"
      ],
      [
        "Ġb",
        "ody"
      ],
      [
        "ic",
        "ro"
      ],
      [
        "Ġm",
        "er"
      ],
      [
        "Ġauth",
        "or"
      ],
      [
        "Ġqu",
        "al"
      ],
      [
        "Ġcontin",
        "ue"
      ],
      [
        "Ġrec",
        "ip"
      ],
      [
        "i",
        "ence"
      ],
      [
        "et",
        "al"
      ],
      [
        "Ġmention",
        "ed"
      ],
      [
        "Ġconf",
        "lic"
      ],
      [
        "ci",
        "pl"
      ],
      [
        "Ġh",
        "ere"
      ],
      [
        "Ġd",
        "aily"
      ],
      [
        "ĠS",
        "erv"
      ],
      [
        "Ġh",
        "ar"
      ],
      [
        "ĠAr",
        "t"
      ],
      [
        "Ġconsum",
        "ers"
      ],
      [
        "ac",
        "tive"
      ],
      [
        "Ġg",
        "round"
      ],
      [
        "Ġinstit",
        "utions"
      ],
      [
        "Ġtrans",
        "par"
      ],
      [
        "Ġcontinu",
        "ous"
      ],
      [
        "Ġmeaning",
        "ful"
      ],
      [
        "h",
        "ood"
      ],
      [
        "Ġp",
        "sych"
      ],
      [
        "Ġst",
        "ar"
      ],
      [
        "an",
        "ti"
      ],
      [
        "ac",
        "ts"
      ],
      [
        "Ġconn",
        "ection"
      ],
      [
        "Ġmod",
        "els"
      ],
      [
        "tiv",
        "eness"
      ],
      [
        "Ġc",
        "al"
      ],
      [
        "Ġn",
        "ear"
      ],
      [
        "a",
        "im"
      ],
      [
        "Ġst",
        "e"
      ],
      [
        "h",
        "ib"
      ],
      [
        "ĠY",
        "our"
      ],
      [
        "Ġcompan",
        "y"
      ],
      [
        "a",
        "ff"
      ],
      [
        "Ġcom",
        "e"
      ],
      [
        "Ġadv",
        "antages"
      ],
      [
        "ĠS",
        "uch"
      ],
      [
        "Ġinst",
        "ead"
      ],
      [
        "Ġappreci",
        "ate"
      ],
      [
        "iti",
        "g"
      ],
      [
        "op",
        "s"
      ],
      [
        "Ġst",
        "ories"
      ],
      [
        "ĠM",
        "on"
      ],
      [
        "Ġres",
        "pect"
      ],
      [
        "Ġthem",
        "es"
      ],
      [
        "Ġn",
        "ext"
      ],
      [
        "Ġpur",
        "s"
      ],
      [
        "Ġguid",
        "elines"
      ],
      [
        "Ġaltern",
        "ative"
      ],
      [
        "Ġstruc",
        "ture"
      ],
      [
        "ath",
[...]
